<pad>	0
<unk>	0
<s>	0
</s>	0
▁the	-3.66251
▁	-3.80857
,	-3.86922
、	-4.02601
▁of	-4.09113
。	-4.24793
)	-4.31393
.	-4.3212
の	-4.36122
▁and	-4.49244
s	-4.50836
▁(	-4.6305
▁in	-4.71143
▁to	-4.76691
-	-4.80993
▁a	-4.88413
(	-4.97433
▁was	-4.98529
は	-4.99854
を	-5.03065
に	-5.06678
が	-5.07182
年	-5.19725
▁is	-5.48976
'	-5.56951
▁as	-5.58428
▁that	-5.87903
・	-5.89719
と	-5.91432
▁by	-5.92661
▁for	-5.99626
▁no	-6.00043
で	-6.00826
▁he	-6.10425
▁on	-6.11094
」	-6.12883
▁with	-6.15467
▁The	-6.18975
▁'	-6.2287
月	-6.23086
▁from	-6.23694
▁his	-6.30062
「	-6.30297
日	-6.31961
▁"	-6.3344
した	-6.36424
ed	-6.37043
し	-6.37169
▁it	-6.37636
▁were	-6.38446
▁In	-6.39343
ing	-6.43152
a	-6.44883
),	-6.45507
).	-6.4693
▁at	-6.47766
▁which	-6.48311
"	-6.50891
や	-6.54543
ji	-6.56766
▁who	-6.57186
である	-6.58797
から	-6.59165
:	-6.59706
も	-6.606
d	-6.62299
▁are	-6.6767
する	-6.72692
▁an	-6.73623
▁be	-6.73946
▁or	-6.75466
▁He	-6.76542
▁period	-6.78337
として	-6.82247
the	-6.83923
e	-6.84063
大	-6.87643
た	-6.88306
る	-6.8953
▁family	-6.90624
in	-6.91925
ly	-6.92301
▁Emperor	-6.94175
2	-6.94284
▁had	-6.94418
▁It	-6.97142
▁not	-6.97298
▁but	-6.97886
▁this	-6.98988
i	-6.99438
o	-6.99969
▁Kyoto	-7.0189
shi	-7.02431
には	-7.02559
▁clan	-7.03434
▁also	-7.04478
ko	-7.05208
』	-7.07241
3	-7.08036
no	-7.09825
▁Temple	-7.10501
ri	-7.14876
▁Province	-7.15247
山	-7.15492
▁called	-7.17174
1	-7.17463
▁Japan	-7.18052
家	-7.18247
して	-7.1921
t	-7.20844
jo	-7.20864
▁became	-7.22406
い	-7.22948
な	-7.2307
▁after	-7.23719
▁Imperial	-7.23804
された	-7.24727
▁one	-7.25147
▁name	-7.2525
では	-7.26103
人	-7.27416
▁City	-7.2744
国	-7.27965
do	-7.29453
という	-7.29585
て	-7.2989
本	-7.30913
▁A	-7.32703
り	-7.33299
to	-7.33478
n	-7.33894
19	-7.34786
▁such	-7.36084
長	-7.36476
4	-7.36833
▁been	-7.3693
▁O	-7.37413
▁Japanese	-7.37846
く	-7.38535
th	-7.38842
▁used	-7.39526
日本	-7.40504
一	-7.41416
▁have	-7.42356
ki	-7.42746
▁Prefecture	-7.43087
re	-7.434
;	-7.43442
sho	-7.44215
▁when	-7.44856
▁Ko	-7.45441
か	-7.46624
▁there	-7.47525
寺	-7.47944
▁-	-7.48683
5	-7.4937
その	-7.49503
▁time	-7.49563
田	-7.49903
など	-7.50536
▁so	-7.51006
『	-7.51155
神	-7.51627
上	-7.52288
go	-7.56484
▁また	-7.56703
18	-7.57395
▁their	-7.57404
▁they	-7.57511
ra	-7.57644
y	-7.57692
市	-7.577
三	-7.57973
▁other	-7.60008
▁son	-7.6093
er	-7.61405
▁into	-7.62737
名	-7.63145
m	-7.63201
中	-7.63285
al	-7.63321
▁during	-7.64111
▁His	-7.64124
▁made	-7.65655
▁government	-7.66068
▁has	-7.66173
▁Edo	-7.66245
法	-7.66305
ro	-7.66446
▁Station	-7.66571
mi	-7.66964
▁first	-7.67021
ku	-7.68078
行	-7.68574
子	-7.68786
き	-7.68844
町	-7.69274
r	-7.6984
義	-7.70474
cho	-7.70591
道	-7.70933
駅	-7.7149
an	-7.71496
であった	-7.71719
下	-7.71746
c	-7.72009
ya	-7.72073
高	-7.72903
6	-7.73002
▁said	-7.73607
▁On	-7.74007
▁people	-7.74085
地	-7.74211
7	-7.74587
10	-7.747
後	-7.75062
tsu	-7.75443
▁However	-7.76118
み	-7.766
している	-7.78178
se	-7.78681
)、	-7.78999
▁I	-7.79015
ma	-7.79125
u	-7.7932
平	-7.79472
ta	-7.79765
った	-7.79866
ら	-7.80005
8	-7.81557
院	-7.81565
gi	-7.81619
16	-7.81792
部	-7.83546
▁its	-7.83624
生	-7.84515
通	-7.84526
te	-7.84747
▁year	-7.85059
▁because	-7.85282
書	-7.8532
shu	-7.85549
chi	-7.85719
▁Prince	-7.86314
される	-7.86317
元	-7.86583
ka	-7.86641
城	-7.86669
正	-7.87294
es	-7.87611
川	-7.88253
or	-7.8829
ga	-7.8863
▁under	-7.88759
▁re	-7.88835
▁between	-7.88884
手	-7.90106
▁Sho	-7.90527
b	-7.90538
によって	-7.90563
st	-7.90582
me	-7.90924
▁head	-7.91225
され	-7.91853
氏	-7.92097
代	-7.92486
yo	-7.92911
者	-7.94055
宮	-7.94576
新	-7.9458
▁system	-7.9477
▁This	-7.95353
文	-7.95357
石	-7.95615
I	-7.9597
所	-7.9619
en	-7.96245
▁Shrine	-7.96521
da	-7.96679
方	-7.97318
17	-7.97403
ている	-7.97407
/	-7.97447
▁18	-7.97459
▁same	-7.97468
12	-7.97485
▁15	-7.97521
がある	-7.97785
小	-7.98122
事	-7.98286
ru	-7.98592
▁only	-7.99106
11	-7.99118
ke	-7.99416
so	-7.99473
東	-7.99728
西	-8.0016
9	-8.00166
う	-8.00881
▁out	-8.01204
宗	-8.01424
へ	-8.01452
.'	-8.01512
▁After	-8.01704
p	-8.01783
す	-8.02137
内	-8.02161
▁some	-8.02247
分	-8.02654
kan	-8.02814
▁many	-8.03032
により	-8.03297
物	-8.03878
▁two	-8.03916
信	-8.04151
▁しかし	-8.04185
▁16	-8.04365
▁her	-8.04382
bu	-8.04925
実	-8.05379
ne	-8.05711
会	-8.05805
▁about	-8.06147
▁up	-8.06779
bi	-8.0696
▁over	-8.06966
le	-8.07075
水	-8.07204
▁To	-8.0724
流	-8.07323
ho	-8.07721
政	-8.07842
na	-8.08001
村	-8.08073
mon	-8.08244
▁later	-8.08642
学	-8.0891
kyo	-8.08946
この	-8.09097
▁died	-8.09721
明	-8.09756
天	-8.09781
野	-8.09889
出	-8.09898
つ	-8.10232
▁years	-8.10361
▁FUJIWARA	-8.1055
って	-8.10934
、「	-8.11003
14	-8.11091
成	-8.11221
▁So	-8.11443
▁school	-8.11577
となった	-8.11652
木	-8.11777
重	-8.11986
御	-8.12022
A	-8.12035
和	-8.12268
前	-8.12979
元年	-8.13319
ス	-8.13444
安	-8.13735
▁Castle	-8.14099
王	-8.14128
お	-8.14512
見	-8.14755
旧暦	-8.15266
yama	-8.15335
線	-8.15382
▁court	-8.15742
▁この	-8.16026
となる	-8.16569
さ	-8.17394
su	-8.17947
O	-8.18032
▁him	-8.18061
▁established	-8.1857
金	-8.18713
とは	-8.18816
▁Ka	-8.18862
▁where	-8.18945
▁part	-8.18974
mo	-8.18976
▁can	-8.19079
ba	-8.1924
fu	-8.19592
▁order	-8.19886
ment	-8.20122
▁well	-8.20199
l	-8.20283
dai	-8.20395
▁father	-8.20578
The	-8.20607
▁all	-8.20648
▁As	-8.20784
15	-8.20905
▁them	-8.20944
▁Rank	-8.21058
主	-8.21276
北	-8.21615
門	-8.22045
による	-8.22298
▁temple	-8.22316
同	-8.22319
▁death	-8.22971
屋	-8.23049
作	-8.23143
藤原	-8.23187
原	-8.23256
▁position	-8.23262
藩	-8.23275
ation	-8.23481
ま	-8.23754
であり	-8.23755
zu	-8.23771
より	-8.2382
などの	-8.24183
▁Shin	-8.24366
忠	-8.24523
▁12	-8.2469
gu	-8.24697
記	-8.24943
されている	-8.25371
▁old	-8.25375
▁11	-8.25563
明治	-8.25591
▁known	-8.25763
まで	-8.25805
にも	-8.25874
目	-8.2608
天皇	-8.26502
ため	-8.26752
▁written	-8.27001
wa	-8.27256
▁bakufu	-8.27504
▁than	-8.27771
▁19	-8.28041
▁Buddhist	-8.28072
▁daughter	-8.28266
g	-8.28293
ル	-8.29096
li	-8.29127
直	-8.2926
▁area	-8.29303
間	-8.29336
世	-8.29357
二	-8.29581
▁three	-8.30049
▁「	-8.30075
▁being	-8.30096
▁Taka	-8.30143
経	-8.3019
shin	-8.30409
軍	-8.30479
13	-8.30486
官	-8.30506
時	-8.31479
▁rank	-8.31987
京都	-8.32068
号	-8.32113
▁second	-8.32499
わ	-8.32613
定	-8.32981
▁she	-8.33079
▁held	-8.33107
光	-8.33134
島	-8.33475
ll	-8.33598
▁Line	-8.34044
南	-8.34084
sen	-8.3429
ge	-8.34379
den	-8.34433
公	-8.34484
▁There	-8.34525
女	-8.3465
▁Ho	-8.34779
▁army	-8.34971
▁appointed	-8.34997
▁de	-8.35066
▁including	-8.35208
▁those	-8.35256
▁then	-8.35272
神社	-8.36045
▁Kamakura	-8.36132
bo	-8.36193
第	-8.36451
▁style	-8.36459
命	-8.36491
いた	-8.36512
▁Go	-8.3716
kai	-8.37424
とする	-8.37463
▁end	-8.37492
していた	-8.37748
郡	-8.38033
入	-8.38134
五	-8.38325
▁line	-8.38451
▁age	-8.38658
▁around	-8.38884
清	-8.38999
▁while	-8.39156
れ	-8.39215
Japanese	-8.39518
be	-8.39612
▁War	-8.39742
▁Domain	-8.40011
zo	-8.40202
ha	-8.40212
化	-8.40413
とも	-8.40666
▁Court	-8.40687
▁side	-8.40918
等	-8.4111
▁served	-8.41172
▁17	-8.41231
▁since	-8.41246
ten	-8.41414
▁rice	-8.4161
▁10	-8.41636
▁7	-8.4184
立	-8.41882
社	-8.42078
合	-8.42317
▁came	-8.42596
20	-8.42628
的	-8.42732
▁new	-8.42826
▁through	-8.42984
外	-8.42996
▁post	-8.43523
▁Yoshi	-8.43793
こ	-8.44246
jin	-8.44252
on	-8.44306
ion	-8.4452
▁13	-8.44638
▁Shi	-8.44647
ryo	-8.4472
ていた	-8.44754
,'	-8.44812
ー	-8.4492
的な	-8.4503
守	-8.45317
源	-8.45426
ン	-8.45843
▁U	-8.45968
ce	-8.46229
▁『	-8.46422
▁lord	-8.46552
▁military	-8.46645
数	-8.46731
gawa	-8.46796
治	-8.4702
sha	-8.47176
歌	-8.47281
▁power	-8.47491
との	-8.47513
昭和	-8.47708
▁given	-8.48034
八	-8.48158
ju	-8.48218
説	-8.48242
▁located	-8.48367
sei	-8.48608
口	-8.48907
への	-8.49124
風	-8.49175
▁Meiji	-8.4921
面	-8.49216
朝	-8.49487
▁priest	-8.49638
▁following	-8.49688
無	-8.49983
▁more	-8.50021
▁Nara	-8.50304
▁however	-8.50362
(15	-8.50443
▁14	-8.50509
▁Osaka	-8.50632
形	-8.50869
あ	-8.51184
▁Ki	-8.5132
▁took	-8.51324
ない	-8.51357
海	-8.51485
え	-8.51652
頼	-8.51662
▁each	-8.51812
▁[	-8.51878
▁MINAMOTO	-8.51883
▁San	-8.51945
古	-8.51968
～	-8.52058
戦	-8.52158
め	-8.52196
じ	-8.52299
it	-8.52403
師	-8.52429
ni	-8.52492
▁down	-8.52518
▁Heian	-8.53233
▁before	-8.53718
▁early	-8.53746
▁like	-8.53851
用	-8.53906
ん	-8.54059
▁E	-8.54165
徳	-8.54277
▁due	-8.54285
▁When	-8.54366
とされる	-8.54389
▁place	-8.54642
集	-8.54647
▁official	-8.54836
リ	-8.54841
勝	-8.54923
次	-8.5498
久	-8.55118
sa	-8.55364
,"	-8.55401
京	-8.55559
こと	-8.55758
井	-8.55973
親	-8.55981
有	-8.56384
▁various	-8.56456
(11	-8.56837
▁Ku	-8.57505
f	-8.57684
不	-8.57759
▁considered	-8.57832
像	-8.5784
▁brother	-8.58074
▁based	-8.58211
位	-8.58254
▁Mi	-8.58279
松	-8.58285
堂	-8.58503
において	-8.5883
られた	-8.58836
▁Dai	-8.58966
▁left	-8.58994
gen	-8.59077
k	-8.59106
心	-8.59187
となり	-8.59278
▁Palace	-8.59569
jinja	-8.59603
▁8	-8.59805
yu	-8.59825
▁station	-8.60133
▁these	-8.60174
▁day	-8.60438
▁wife	-8.606
▁Chinese	-8.60851
▁region	-8.61294
馬	-8.61326
仏	-8.61599
▁back	-8.61779
土	-8.61791
体	-8.61824
▁use	-8.61854
伝	-8.62013
四	-8.62026
教	-8.62054
▁Kan	-8.62106
け	-8.62224
真	-8.62469
▁shogun	-8.62886
S	-8.62924
de	-8.63059
man	-8.63122
ち	-8.63235
w	-8.63254
白	-8.63258
む	-8.63314
でも	-8.63315
▁person	-8.63375
派	-8.63428
▁would	-8.63581
▁sect	-8.63657
巻	-8.63786
▁1	-8.64033
場	-8.64201
▁Ward	-8.64249
▁even	-8.64379
広	-8.64623
ry	-8.64902
▁theory	-8.64939
▁war	-8.65091
ば	-8.65174
▁mother	-8.6522
制	-8.65223
保	-8.65345
▁did	-8.65487
sai	-8.65568
▁imperial	-8.65735
役	-8.65811
za	-8.65875
san	-8.65943
▁number	-8.65944
▁main	-8.66137
論	-8.66276
▁against	-8.66305
▁Tokyo	-8.66502
色	-8.66655
▁con	-8.66819
Junior	-8.66876
座	-8.66993
ト	-8.67034
tai	-8.67176
▁era	-8.67396
▁At	-8.67404
もの	-8.675
イ	-8.67635
▁Sa	-8.6766
▁local	-8.67816
後に	-8.67857
▁started	-8.67987
旧	-8.68147
別	-8.68586
▁Ta	-8.68902
▁Su	-8.69255
▁himself	-8.6935
▁9	-8.6939
領	-8.697
だ	-8.6973
殿	-8.69772
性	-8.70106
語	-8.70131
蔵	-8.70157
頭	-8.70163
花	-8.70218
▁その	-8.70295
mu	-8.70315
▁land	-8.70688
▁title	-8.70749
▁could	-8.70845
po	-8.70894
hi	-8.7107
兵	-8.71098
にある	-8.71197
▁sho	-8.71248
両	-8.71255
ve	-8.71311
ng	-8.71327
全	-8.71467
▁shrine	-8.71486
吉	-8.7158
▁high	-8.71695
▁Although	-8.71807
現	-8.71891
▁built	-8.72157
▁go	-8.72205
▁samurai	-8.72217
▁No	-8.72395
▁fact	-8.72461
相	-8.72908
ず	-8.72931
▁Jo	-8.72962
▁Fu	-8.73241
yoshi	-8.73398
ur	-8.73461
▁both	-8.73513
▁long	-8.73537
ク	-8.73537
シ	-8.73622
多	-8.73658
年に	-8.73688
秀	-8.74087
▁April	-8.74245
▁among	-8.74352
E	-8.74442
開	-8.7457
▁School	-8.74624
酒	-8.74671
▁feudal	-8.74717
ti	-8.74748
▁March	-8.75239
▁その後	-8.75597
▁Do	-8.75879
権	-8.76118
職	-8.76427
度	-8.76597
カ	-8.76731
▁kami	-8.76965
▁went	-8.7699
gyo	-8.77257
ted	-8.77312
回	-8.77606
橋	-8.7761
h	-8.77662
式	-8.77692
日に	-8.7771
武	-8.78003
▁emperor	-8.78086
発	-8.78118
▁hand	-8.78127
▁way	-8.78135
▁do	-8.78209
だった	-8.78355
々	-8.78383
▁born	-8.78551
▁Buddhism	-8.78779
楽	-8.78795
30	-8.79044
moto	-8.79134
進	-8.79179
lo	-8.79393
▁addition	-8.79456
ar	-8.79493
▁tea	-8.79501
ノ	-8.79589
盛	-8.79834
とともに	-8.80071
また	-8.80121
▁present	-8.80163
品	-8.80206
▁6	-8.80281
之	-8.80285
先	-8.80321
▁According	-8.80516
米	-8.80848
▁2	-8.80941
区	-8.80989
知	-8.81045
六	-8.81059
▁China	-8.81238
kata	-8.81408
▁Tada	-8.81735
gaku	-8.81781
▁become	-8.81811
常	-8.81816
."	-8.81995
▁often	-8.82092
館	-8.82133
造	-8.82242
良	-8.82327
約	-8.82351
▁book	-8.82373
▁なお	-8.82419
▁battle	-8.82434
理	-8.82502
歳	-8.82535
円	-8.82542
▁un	-8.82592
un	-8.82661
永	-8.82699
▁adopted	-8.82769
▁January	-8.82771
21	-8.82782
の子	-8.82858
谷	-8.83073
気	-8.83079
▁For	-8.83176
C	-8.8324
せ	-8.833
力	-8.83331
万	-8.83436
▁above	-8.83448
身	-8.83526
江戸	-8.83617
▁S	-8.83652
tu	-8.83654
ent	-8.83663
▁ceremony	-8.84072
▁Sei	-8.84119
▁times	-8.84256
▁Ma	-8.84281
、『	-8.84326
ア	-8.84329
min	-8.8454
▁section	-8.8457
▁group	-8.84571
▁3	-8.84578
):	-8.84655
▁ancient	-8.84693
▁Masa	-8.84984
なかった	-8.85064
任	-8.85127
▁Mt	-8.85312
able	-8.85331
▁different	-8.85446
nin	-8.85866
中国	-8.86114
▁work	-8.86137
ね	-8.86156
▁C	-8.86263
ity	-8.86756
ers	-8.86787
民	-8.86989
家の	-8.87
at	-8.87003
能	-8.87038
▁state	-8.87081
▁former	-8.87325
la	-8.87618
取	-8.87854
ラ	-8.87973
例	-8.87998
dori	-8.88008
点	-8.88297
▁third	-8.88342
▁most	-8.88412
図	-8.88529
諸	-8.88584
▁July	-8.88887
▁large	-8.8893
日本の	-8.88967
画	-8.89133
七	-8.8931
津	-8.89346
▁October	-8.89474
京都府	-8.89491
▁Re	-8.89702
▁Ten	-8.89777
文化	-8.89812
age	-8.89954
▁Ya	-8.89957
▁domain	-8.90256
▁Wa	-8.90355
茶	-8.90504
NO	-8.90538
▁until	-8.91144
兼	-8.91177
のみ	-8.912
▁May	-8.91211
▁Shu	-8.91249
当	-8.9148
▁Railway	-8.91496
▁changed	-8.91579
火	-8.91641
ぶ	-8.9168
▁days	-8.91743
もある	-8.91943
▁Yu	-8.92058
幕府	-8.92123
▁century	-8.92293
▁Nobunaga	-8.92509
▁August	-8.92557
ことから	-8.92758
ふ	-8.92809
▁Kai	-8.9281
40	-8.92813
zan	-8.9287
N	-8.92977
▁without	-8.93058
T	-8.93279
千	-8.93347
▁chief	-8.93387
vi	-8.93407
室	-8.93549
literally	-8.93611
▁sake	-8.93689
mori	-8.93694
ter	-8.93913
▁Hideyoshi	-8.93956
▁others	-8.93973
▁Ju	-8.94038
U	-8.94112
▁koku	-8.94339
ated	-8.94483
▁February	-8.94495
24	-8.94669
景	-8.94689
25	-8.947
為	-8.9475
22	-8.94822
様	-8.94824
▁University	-8.94876
自	-8.94907
祭	-8.95323
ary	-8.95334
ck	-8.9543
zen	-8.95461
27	-8.95525
▁Buddha	-8.95595
的に	-8.9582
食	-8.95862
▁set	-8.95883
▁history	-8.95978
における	-8.96318
貞	-8.96333
23	-8.96667
machi	-8.96749
▁means	-8.96752
▁office	-8.96879
言	-8.96894
▁Period	-8.96896
koku	-8.96945
▁Shinto	-8.9696
各	-8.96972
令	-8.9703
▁if	-8.97066
応	-8.9721
▁will	-8.97215
戸	-8.97396
藤	-8.97438
▁began	-8.9747
▁December	-8.97541
ド	-8.97605
将軍	-8.97642
▁along	-8.97711
▁great	-8.97721
十	-8.97812
▁capital	-8.97871
春	-8.97878
▁Grade	-8.97904
▁Muromachi	-8.97909
船	-8.98153
▁using	-8.98254
▁September	-8.98265
▁water	-8.98356
mura	-8.98403
▁Sen	-8.9871
▁child	-8.98714
28	-8.98766
▁four	-8.98807
ひ	-8.98835
▁TOKUGAWA	-8.98847
タ	-8.9888
▁Ji	-8.98912
shima	-8.99025
▁form	-8.99035
▁should	-8.99041
▁another	-8.9906
大学	-8.99087
豊	-8.99114
母	-8.99152
suke	-8.99304
▁Yo	-8.99343
▁Kin	-8.99439
キ	-8.99534
el	-8.99667
▁Sada	-8.99836
尊	-8.99931
▁Co	-9.00009
があった	-9.00055
▁birth	-9.00191
▁An	-9.00193
び	-9.00212
50	-9.00349
マ	-9.00429
▁Gen	-9.00442
ie	-9.00488
▁residence	-9.00507
とした	-9.00538
▁Ha	-9.00544
▁right	-9.00668
後の	-9.00704
▁lived	-9.00711
▁temples	-9.00713
」(	-9.00737
台	-9.0075
られる	-9.00892
ryu	-9.009
▁unknown	-9.00962
宝	-9.00981
▁make	-9.01031
▁hall	-9.01265
chu	-9.01511
▁November	-9.01526
lu	-9.0157
業	-9.01594
▁general	-9.01707
mp	-9.01763
▁term	-9.01814
rin	-9.0201
roku	-9.02042
▁castle	-9.02057
られ	-9.0212
myo	-9.02156
▁National	-9.02173
29	-9.02177
▁life	-9.02256
▁Battle	-9.02419
関係	-9.02488
▁Tsu	-9.02503
父	-9.02608
っ	-9.02638
ive	-9.02672
naga	-9.03008
付	-9.03051
▁River	-9.03121
▁younger	-9.0315
ニ	-9.03281
▁En	-9.03311
字	-9.03511
▁Naga	-9.03636
us	-9.03636
があり	-9.0366
房	-9.0372
▁Se	-9.03827
綱	-9.03877
唐	-9.0391
紙	-9.04008
んだ	-9.0433
現在の	-9.04353
地方	-9.04504
Ko	-9.04555
ウ	-9.0459
在	-9.04597
▁June	-9.04643
▁together	-9.04713
の娘	-9.0495
▁statue	-9.04966
▁Yamato	-9.04981
▁members	-9.05198
ぎ	-9.05258
首	-9.05375
▁families	-9.05386
▁F	-9.05406
隊	-9.0542
美	-9.05439
車	-9.05443
shiki	-9.05508
▁ten	-9.0555
▁world	-9.05697
▁thought	-9.05773
」「	-9.05803
▁promoted	-9.06045
▁own	-9.0605
▁trains	-9.06065
ci	-9.06067
仁	-9.06381
▁Zen	-9.06389
▁late	-9.0656
▁important	-9.06597
来	-9.06647
▁Cho	-9.06647
▁Uji	-9.0665
ichi	-9.06678
▁man	-9.06725
▁Ken	-9.06817
▁away	-9.06906
▁Nobu	-9.06977
代目	-9.07034
と呼ばれる	-9.07091
▁service	-9.07098
▁4	-9.07206
▁Yasu	-9.0724
▁Gon	-9.07367
▁Hon	-9.0739
今	-9.07418
都	-9.07604
▁Tai	-9.07844
基	-9.07857
▁member	-9.08045
親王	-9.08082
▁result	-9.08249
ting	-9.08328
▁original	-9.08369
tic	-9.08616
▁ko	-9.09058
以降	-9.09149
ken	-9.09165
TA	-9.09173
▁ASHIKAGA	-9.09244
▁5	-9.09255
期	-9.0927
▁Empress	-9.09394
▁national	-9.09407
(12	-9.09452
▁believed	-9.09554
初	-9.09561
興	-9.10029
▁dis	-9.10165
va	-9.10255
▁led	-9.1027
▁Hi	-9.10355
っている	-9.10449
▁o	-9.10501
▁control	-9.10616
持	-9.10638
ic	-9.10648
▁put	-9.10726
ty	-9.10745
masa	-9.10905
加	-9.10927
隆	-9.10929
ること	-9.10948
店	-9.10979
丸	-9.11015
異	-9.11161
着	-9.11248
▁having	-9.11271
暦	-9.11452
香	-9.11481
▁still	-9.11482
連	-9.115
残	-9.11503
26	-9.11535
人の	-9.11558
▁Shige	-9.116
に対して	-9.11671
▁house	-9.11697
達	-9.11737
▁Moto	-9.1176
▁She	-9.11799
ことが	-9.118
地域	-9.11831
60	-9.11892
レ	-9.11899
▁Kyo	-9.11904
gun	-9.11986
東京	-9.1199
▁political	-9.12022
佐	-9.12053
mono	-9.1228
kei	-9.12313
量	-9.1234
▁according	-9.12346
▁received	-9.12414
観	-9.12504
音	-9.12541
▁Since	-9.12602
総	-9.12667
▁daimyo	-9.12753
▁calendar	-9.12929
ban	-9.12932
taka	-9.12955
福	-9.13012
80	-9.13022
ward	-9.13077
については	-9.13145
Senior	-9.13148
yaku	-9.13164
he	-9.13171
系	-9.13194
▁public	-9.13379
▁train	-9.13387
左	-9.13396
▁half	-9.13626
ある	-9.13719
P	-9.13739
天皇の	-9.13743
dan	-9.13811
▁ho	-9.13867
▁e	-9.13871
利	-9.14016
▁front	-9.14141
▁described	-9.14153
霊	-9.14349
90	-9.14353
▁you	-9.14615
産	-9.1462
kawa	-9.14639
G	-9.147
hito	-9.14701
ように	-9.1474
種	-9.14929
コ	-9.14939
曲	-9.15085
▁明治	-9.15252
使	-9.15417
右	-9.15569
▁children	-9.15595
▁Ieyasu	-9.15705
R	-9.15737
称	-9.1575
話	-9.15772
co	-9.15962
▁Street	-9.16037
助	-9.16091
向	-9.16131
ぐ	-9.16135
林	-9.16201
kuni	-9.16219
SHI	-9.16261
com	-9.16264
▁five	-9.16291
事件	-9.16383
跡	-9.16432
▁succeeded	-9.16581
勢	-9.16627
red	-9.16649
草	-9.16746
ナ	-9.16802
チ	-9.16823
▁historical	-9.1684
▁found	-9.16854
gan	-9.16856
▁building	-9.16892
調	-9.17039
郷	-9.17061
▁Shogun	-9.17087
DA	-9.1712
▁Sai	-9.17187
▁sent	-9.17436
hime	-9.17515
▁charge	-9.17593
▁moved	-9.17629
▁country	-9.1782
刀	-9.17887
▁branch	-9.17934
▁common	-9.17937
ver	-9.17965
表	-9.18016
▁any	-9.18032
▁Mitsu	-9.18106
▁Omi	-9.18332
▁pro	-9.18458
▁named	-9.1854
よ	-9.18552
死	-9.18657
武士	-9.18746
▁art	-9.18753
格	-9.18854
▁small	-9.18857
末	-9.18926
男	-9.1898
ir	-9.18995
仏教	-9.19066
っていた	-9.19128
満	-9.19176
になった	-9.19189
pi	-9.19446
▁master	-9.19528
ist	-9.19559
ei	-9.19575
▁example	-9.19594
nomiya	-9.198
番	-9.19804
▁fire	-9.19836
▁real	-9.19949
史	-9.20124
▁shrines	-9.20243
されていた	-9.2025
▁They	-9.2028
▁view	-9.20351
tion	-9.20382
竹	-9.20508
▁Nishi	-9.20583
▁within	-9.20969
mei	-9.20971
ム	-9.21042
▁killed	-9.21063
意	-9.21298
x	-9.2137
hira	-9.21424
▁Mori	-9.21561
▁Naka	-9.21614
京都市	-9.21674
▁governor	-9.21707
Ka	-9.21798
足	-9.21831
▁During	-9.21921
bon	-9.21934
▁Yoritomo	-9.21965
ven	-9.22153
解	-9.22248
夜	-9.22479
修	-9.22675
M	-9.22843
皇子	-9.22891
▁included	-9.22998
▁good	-9.23009
すると	-9.23172
ミ	-9.23205
day	-9.23216
ating	-9.23339
ca	-9.23505
00	-9.23546
オ	-9.23555
di	-9.23587
▁Genji	-9.23658
河	-9.23732
よう	-9.23777
ど	-9.2388
▁passed	-9.24135
当時の	-9.2422
なく	-9.24305
具	-9.24306
▁performed	-9.24509
ad	-9.24608
僧	-9.24639
▁placed	-9.24689
▁story	-9.24733
印	-9.24788
場合	-9.24924
▁traditional	-9.24946
側	-9.25024
▁gave	-9.25047
ch	-9.25053
月に	-9.25249
▁Minister	-9.25297
▁middle	-9.25368
▁P	-9.25479
▁very	-9.25534
▁popular	-9.25557
▁god	-9.25587
men	-9.25634
31	-9.25691
いて	-9.25762
絵	-9.25944
そ	-9.2605
rs	-9.26169
▁Therefore	-9.26196
ではなく	-9.26231
▁Tokugawa	-9.26262
布	-9.2632
36	-9.26422
』(	-9.26537
▁f	-9.26654
▁Ni	-9.26764
康	-9.26803
bun	-9.26808
▁Also	-9.27078
ous	-9.27094
人物	-9.272
▁close	-9.2728
D	-9.27296
▁case	-9.27386
寺院	-9.27466
鉄道	-9.27481
岡	-9.27568
結	-9.27803
▁returned	-9.27891
▁off	-9.27993
▁word	-9.28084
ate	-9.28132
To	-9.28146
▁last	-9.28152
▁pre	-9.2829
朝廷	-9.28304
▁produced	-9.28467
▁areas	-9.28534
味	-9.28567
改	-9.28621
について	-9.28633
条	-9.2872
▁1,	-9.28787
ろ	-9.29301
▁Yori	-9.29311
▁TAIRA	-9.29366
根	-9.29398
▁p	-9.29518
▁c	-9.29533
遠	-9.29581
kaku	-9.29608
他	-9.29618
▁Hiro	-9.29773
▁seen	-9.29867
▁names	-9.29868
il	-9.29906
▁大	-9.29906
与	-9.29922
及び	-9.29932
建	-9.30032
百	-9.30238
ジ	-9.30258
となっている	-9.30323
慶	-9.30359
hara	-9.30435
est	-9.30446
▁issued	-9.30472
時代	-9.30566
黒	-9.3068
H	-9.30756
▁County	-9.30881
▁originally	-9.31011
▁B	-9.31067
▁type	-9.31098
▁co	-9.31102
すること	-9.31118
ance	-9.31142
▁created	-9.31218
延	-9.31265
支配	-9.31277
ism	-9.31285
頃	-9.3134
KI	-9.31372
nori	-9.3146
▁designated	-9.3147
富	-9.31484
紀	-9.31581
▁lost	-9.31582
従	-9.31724
▁referred	-9.31762
▁Han	-9.31774
▁origin	-9.31817
▁Ise	-9.31859
▁next	-9.31888
▁Chi	-9.31971
姫	-9.32086
yori	-9.32204
になる	-9.32268
退	-9.32299
▁Southern	-9.32551
▁Princess	-9.32555
ところ	-9.32591
▁Lower	-9.32596
▁Aki	-9.32596
フ	-9.32814
▁Dynasty	-9.32833
mitsu	-9.32899
▁en	-9.33163
▁paper	-9.33278
▁north	-9.3331
kyu	-9.33442
▁sa	-9.33454
参	-9.33521
32	-9.33527
▁refers	-9.33599
県	-9.33637
▁take	-9.33715
司	-9.33717
▁modern	-9.33856
筆	-9.3387
多くの	-9.33908
▁famous	-9.34115
ized	-9.3419
少	-9.34195
▁developed	-9.34202
▁sword	-9.34285
芸	-9.34297
世紀	-9.3434
▁entered	-9.34471
られている	-9.34587
▁works	-9.34598
志	-9.34603
son	-9.34625
yasu	-9.34671
大名	-9.34711
▁special	-9.34761
▁music	-9.34796
尾	-9.34887
▁business	-9.34929
▁mountain	-9.34945
▁may	-9.34969
▁mainly	-9.35035
75	-9.35144
乗	-9.35217
伊	-9.35262
▁books	-9.35293
one	-9.35321
▁again	-9.35442
▁Bus	-9.35481
nobu	-9.35528
または	-9.35602
▁ex	-9.35757
▁これは	-9.35783
▁etc	-9.3581
(7	-9.35859
局	-9.35877
としての	-9.3591
▁relationship	-9.35981
Shi	-9.35981
70	-9.36005
善	-9.36025
強	-9.36128
▁Northern	-9.36137
as	-9.36154
奈良	-9.3629
州	-9.36308
務	-9.36336
ものである	-9.36348
近	-9.36445
▁Matsu	-9.36475
▁role	-9.36477
ring	-9.36498
▁today	-9.36538
▁Korea	-9.36618
覚	-9.36716
▁Na	-9.36778
府	-9.36786
▁therefore	-9.36855
当時	-9.3688
▁sometimes	-9.36994
陣	-9.37042
させた	-9.37175
YA	-9.3718
反	-9.37232
▁construction	-9.37296
臣	-9.37303
大阪	-9.37382
▁Bu	-9.37441
若	-9.37511
▁reason	-9.37531
ness	-9.37546
YAMA	-9.37638
▁Mo	-9.37657
▁gate	-9.37727
ロ	-9.37749
の大	-9.37905
制度	-9.37949
pe	-9.37962
▁poems	-9.37978
▁territory	-9.3803
et	-9.38035
▁making	-9.38095
▁noble	-9.38149
を受け	-9.38303
料	-9.38329
▁Kei	-9.38331
(13	-9.38377
落	-9.38392
太	-9.38428
料理	-9.38549
切	-9.38566
]	-9.38606
▁forces	-9.38709
玉	-9.38762
礼	-9.38764
▁young	-9.3878
氏の	-9.38806
作品	-9.38912
▁just	-9.39169
▁Hall	-9.39184
▁headed	-9.39191
ze	-9.39219
葉	-9.3925
▁shogunate	-9.39253
路	-9.39264
▁Kami	-9.39317
▁Taira	-9.3941
▁food	-9.39433
58	-9.39466
35	-9.39589
渡	-9.39616
客	-9.3962
▁Sect	-9.39736
ハ	-9.3978
▁Ryo	-9.398
▁class	-9.39872
▁law	-9.39872
▁south	-9.39922
33	-9.40103
▁attack	-9.40169
型	-9.40172
Kyoto	-9.40315
好	-9.4033
(10	-9.4033
段	-9.40332
MI	-9.40421
▁now	-9.40456
ことを	-9.40541
バス	-9.40558
私	-9.40627
されて	-9.40706
界	-9.40786
得	-9.40823
断	-9.40858
住	-9.40891
ling	-9.41254
鎌倉時代	-9.41272
要	-9.41326
▁city	-9.41417
利用	-9.41431
半	-9.41543
fusa	-9.4173
取り	-9.41751
▁once	-9.41928
愛	-9.41933
政治	-9.41947
組	-9.41983
動	-9.42096
→	-9.42133
▁center	-9.42153
▁site	-9.42169
▁Toshi	-9.4218
▁Kuni	-9.42213
士	-9.42253
▁image	-9.4233
▁east	-9.42394
0	-9.42483
tsuna	-9.42671
▁stop	-9.42681
yuki	-9.42711
ron	-9.4272
▁stone	-9.42811
▁Mu	-9.4282
帯	-9.42878
だけ	-9.42993
江	-9.43089
michi	-9.43132
衆	-9.43186
▁ODA	-9.43241
関	-9.43299
そう	-9.43306
ツ	-9.4344
▁ka	-9.43472
などを	-9.43557
対	-9.43557
▁nobles	-9.43607
沢	-9.43625
の一	-9.43659
pp	-9.43671
ant	-9.43756
81	-9.43773
▁Later	-9.43836
▁Tomo	-9.43845
舞	-9.43915
ction	-9.43976
節	-9.44033
破	-9.44048
の名	-9.44076
ning	-9.44111
▁fu	-9.44149
それ	-9.44265
▁continued	-9.44387
▁ただし	-9.44442
青	-9.44448
▁mo	-9.44538
決	-9.44539
研究	-9.44581
部分	-9.44618
▁town	-9.44695
および	-9.44699
sh	-9.44701
特に	-9.44758
ご	-9.44786
38	-9.44823
質	-9.44951
▁characters	-9.45012
器	-9.45082
比	-9.45092
サ	-9.45113
などが	-9.45131
▁several	-9.4515
▁troops	-9.45163
居	-9.45179
▁Ga	-9.45208
なり	-9.45257
▁そのため	-9.45326
物語	-9.4541
side	-9.4554
工	-9.45552
省	-9.45602
顕	-9.45604
如	-9.45652
雄	-9.45705
▁retainer	-9.45715
▁Kanto	-9.45808
兄	-9.45836
と共に	-9.45873
させ	-9.45934
鎌倉	-9.45956
メ	-9.46054
▁House	-9.46116
類	-9.46157
▁short	-9.46215
空	-9.46232
略	-9.4626
)」	-9.46323
姓	-9.4635
▁private	-9.46445
においては	-9.46504
大正	-9.46581
rai	-9.46585
tsune	-9.4667
um	-9.46736
▁assumed	-9.46741
▁situation	-9.46773
▁introduced	-9.46785
ja	-9.46791
朝鮮	-9.46834
ship	-9.46861
その後	-9.46869
(8	-9.46975
nd	-9.47031
越	-9.47105
▁every	-9.47122
▁published	-9.47124
列車	-9.47167
nt	-9.47238
ると	-9.47331
▁Division	-9.47337
記録	-9.47351
69	-9.47466
▁character	-9.47517
▁enshrined	-9.47526
83	-9.47555
▁incident	-9.47594
以後	-9.47633
▁home	-9.47655
NA	-9.4771
▁Kita	-9.47817
としては	-9.47899
nari	-9.47913
▁20	-9.48006
岩	-9.48053
mai	-9.48057
han	-9.48063
▁Family	-9.48111
賀	-9.48172
present	-9.48201
幸	-9.48288
▁Ministry	-9.48337
▁played	-9.48355
▁Tsune	-9.48421
さらに	-9.4854
貴族	-9.48579
での	-9.48619
弟	-9.48775
▁bu	-9.48791
▁top	-9.48806
toku	-9.48881
たち	-9.49041
▁commander	-9.49107
友	-9.49117
41	-9.4915
)・	-9.4922
ために	-9.49305
▁Ri	-9.49316
増	-9.49364
介	-9.49369
▁appeared	-9.49444
▁Mon	-9.49493
こう	-9.49493
▁whose	-9.4953
▁Fifth	-9.49572
からの	-9.49678
L	-9.49774
ビ	-9.49811
悪	-9.49875
▁status	-9.49887
▁Some	-9.4989
これを	-9.49935
いる	-9.49946
女性	-9.4995
里	-9.49992
兵衛	-9.50001
団	-9.5001
hei	-9.50073
即位	-9.50104
継	-9.50123
横	-9.50199
▁Noh	-9.50241
角	-9.50242
科	-9.50243
▁Museum	-9.5031
▁Cultural	-9.50363
▁Take	-9.50397
tsugu	-9.50471
rei	-9.50488
37	-9.50502
商	-9.50524
▁From	-9.50575
遺	-9.50598
それぞれ	-9.50735
85	-9.50736
▁regarded	-9.50889
▁throne	-9.50894
▁strong	-9.50903
典	-9.50964
んで	-9.51041
守護	-9.51077
gata	-9.51083
68	-9.51086
▁force	-9.51104
▁soldiers	-9.51198
ful	-9.51207
国の	-9.5127
寄	-9.51327
承	-9.51331
衣	-9.5134
とされている	-9.51365
▁di	-9.51411
梅	-9.51416
con	-9.51465
▁Toki	-9.51488
三条	-9.51497
赤	-9.51568
変	-9.516
藩主	-9.51621
▁culture	-9.51643
])	-9.51725
▁ha	-9.51743
ッ	-9.51787
▁beginning	-9.51806
▁Ichi	-9.51844
あり	-9.52029
▁Nan	-9.52032
▁Ro	-9.52036
ブ	-9.52054
秋	-9.52076
資	-9.5208
視	-9.52106
▁ordered	-9.52282
▁prince	-9.52518
雲	-9.52523
95	-9.52606
JR	-9.5272
01	-9.52788
▁collection	-9.52798
ので	-9.52871
oka	-9.52873
▁cultural	-9.52874
順	-9.52993
gin	-9.52996
公家	-9.52999
TSU	-9.53
著	-9.53031
▁shi	-9.53058
ally	-9.53058
妻	-9.53085
願	-9.53086
端	-9.53102
▁Keihan	-9.53108
▁そして	-9.53143
あるいは	-9.53157
79	-9.5316
ゆ	-9.53243
▁De	-9.53251
▁Incident	-9.53373
とき	-9.5341
▁major	-9.53415
pa	-9.53456
斎	-9.5347
廃	-9.53477
▁stage	-9.53486
▁Hide	-9.53556
led	-9.53567
cu	-9.53623
子の	-9.53631
聖	-9.53648
▁Higashi	-9.5369
▁room	-9.53724
▁Fujiwara	-9.53848
▁west	-9.53947
ており	-9.54007
ほど	-9.54029
▁vassal	-9.54037
ut	-9.54046
エ	-9.54185
にあった	-9.54212
▁bus	-9.54255
平成	-9.54291
(9	-9.54295
▁although	-9.54373
撃	-9.5441
信長	-9.54423
▁Sane	-9.54487
寛	-9.54566
員	-9.54598
したもの	-9.546
老	-9.54701
華	-9.54791
感	-9.54871
のように	-9.54982
▁W	-9.55037
▁officials	-9.55068
宿	-9.5508
▁cases	-9.55082
崎	-9.55088
服	-9.5511
ケ	-9.55138
▁transferred	-9.55198
Mi	-9.55247
問題	-9.55322
銀	-9.55339
禅	-9.55362
祖	-9.55441
社会	-9.55489
病	-9.55494
77	-9.55524
転	-9.55563
塔	-9.55621
ol	-9.55692
▁allowed	-9.55705
▁meaning	-9.55709
▁Kyushu	-9.55717
▁hi	-9.55758
▁palace	-9.55834
最	-9.55835
?	-9.55885
cha	-9.55929
84	-9.55944
matsu	-9.56085
fi	-9.56106
板	-9.56143
▁Sengoku	-9.56151
ts	-9.56199
▁body	-9.56206
▁Nori	-9.56324
▁instead	-9.56376
43	-9.5644
▁Office	-9.5647
▁Because	-9.56537
61	-9.56562
▁similar	-9.56593
時期	-9.56627
▁influence	-9.5663
aki	-9.56668
78	-9.56712
引	-9.5678
夫	-9.56789
▁sea	-9.5682
とし	-9.56834
▁tax	-9.57026
したが	-9.57069
▁retired	-9.57168
▁retainers	-9.57198
▁Kiyo	-9.57281
再	-9.57299
▁founded	-9.57301
学校	-9.57342
Ha	-9.57375
▁Tang	-9.57396
できる	-9.57437
にて	-9.57462
中央	-9.57505
67	-9.57675
39	-9.57692
売	-9.57695
▁One	-9.57724
▁brought	-9.57727
瀬	-9.57784
銭	-9.57784
▁Iwa	-9.57804
ding	-9.57812
に対する	-9.5785
電	-9.57968
のこと	-9.58108
42	-9.58121
▁six	-9.58153
▁joined	-9.58195
▁Guards	-9.58236
雑	-9.5824
君	-9.58277
彦	-9.58347
am	-9.58368
▁Western	-9.58441
源氏	-9.58623
▁dance	-9.58716
坂	-9.58723
ture	-9.58732
ner	-9.58825
終	-9.58861
議	-9.5891
▁taken	-9.59036
室町時代	-9.59129
鉄	-9.59129
▁meters	-9.59236
45	-9.59372
智	-9.5948
政府	-9.59701
▁fourth	-9.59741
dera	-9.59808
輪	-9.59821
▁Jin	-9.59859
映画	-9.5986
の神	-9.59911
▁village	-9.59926
収	-9.59979
▁study	-9.59992
48	-9.60166
池	-9.60283
かった	-9.60288
党	-9.60348
▁Ei	-9.60356
使用	-9.6039
guchi	-9.60406
▁Man	-9.60449
nai	-9.60519
op	-9.60581
F	-9.60594
65	-9.60602
▁Michi	-9.60627
shige	-9.6081
sui	-9.60841
▁JR	-9.60844
縁	-9.60904
▁countries	-9.60914
▁unit	-9.6092
前に	-9.60941
▁Bun	-9.60985
これ	-9.61079
龍	-9.6109
▁Festival	-9.61091
を行う	-9.61154
34	-9.6137
▁mentioned	-9.61383
▁men	-9.61389
える	-9.61418
▁Main	-9.61456
などに	-9.61463
勢力	-9.61468
▁Suke	-9.61512
げ	-9.61528
宣	-9.61561
▁wrote	-9.61564
bashi	-9.61591
82	-9.61591
)3	-9.61626
B	-9.61664
際	-9.61718
butsu	-9.61728
仲	-9.61746
▁ma	-9.61763
活動	-9.61804
などで	-9.61808
maru	-9.61904
▁founder	-9.61979
ガ	-9.61988
seki	-9.61995
▁method	-9.62018
dy	-9.62067
バ	-9.62106
校	-9.62127
▁places	-9.62146
▁KA	-9.62161
現在	-9.62213
太郎	-9.62223
katsu	-9.62322
55	-9.62366
帝	-9.62366
94	-9.62371
▁opened	-9.62386
裏	-9.62426
▁record	-9.62464
▁kind	-9.6249
塩	-9.62516
si	-9.62564
を持つ	-9.6257
tada	-9.62662
教育	-9.62702
maro	-9.62708
▁poetry	-9.62777
emon	-9.62931
放	-9.62986
支	-9.62986
Sho	-9.63138
▁related	-9.63251
のため	-9.63271
べ	-9.63292
▁seven	-9.63298
▁schools	-9.63327
講	-9.63455
▁fought	-9.63539
ren	-9.63618
玄	-9.63627
焼	-9.63789
▁see	-9.63793
86	-9.63858
▁san	-9.63861
▁plan	-9.6388
act	-9.63882
Genji	-9.63916
系統	-9.6399
style	-9.64001
▁Yama	-9.64005
▁completed	-9.64129
阿	-9.64155
▁West	-9.6417
99	-9.64203
59	-9.64215
指定	-9.64225
何	-9.64266
ded	-9.64351
jiro	-9.64383
九州	-9.64396
62	-9.64446
▁generation	-9.64455
のうち	-9.64458
▁Myo	-9.64466
園	-9.64477
▁New	-9.64484
54	-9.64529
tan	-9.64545
way	-9.64547
季	-9.64624
89	-9.64729
寿	-9.64731
KA	-9.64742
▁Miya	-9.64805
といった	-9.64874
▁Yuki	-9.64905
93	-9.64925
▁religious	-9.64934
奥	-9.64955
▁defeated	-9.64963
▁Third	-9.65
章	-9.65026
▁current	-9.65042
名は	-9.65058
▁Kannon	-9.65061
▁KO	-9.65063
だが	-9.6513
49	-9.65172
周	-9.65176
tori	-9.65198
▁Mune	-9.65247
▁spread	-9.65308
ving	-9.65335
▁decided	-9.65389
全国	-9.65447
一族	-9.65462
望	-9.6549
護	-9.65512
▁words	-9.65731
▁remains	-9.65733
世界	-9.65839
▁company	-9.65862
荘	-9.65917
▁sp	-9.66019
vo	-9.66023
56	-9.66089
▁direct	-9.66106
sing	-9.66143
▁Chu	-9.66197
宇	-9.66213
リー	-9.66229
▁TOYOTOMI	-9.66234
)4	-9.66248
MURA	-9.66297
▁amount	-9.6631
▁Satsuma	-9.66458
id	-9.66495
▁Tale	-9.66554
密	-9.66598
漢	-9.66654
%	-9.66732
俊	-9.66732
▁deity	-9.66786
大和	-9.66808
Ho	-9.66846
▁Road	-9.66931
信仰	-9.66987
の一つ	-9.67026
▁what	-9.67107
思	-9.6711
ざ	-9.6714
▁Second	-9.6717
▁affairs	-9.67251
▁Nao	-9.67314
Japan	-9.67352
▁History	-9.67367
他の	-9.6742
ish	-9.67421
証	-9.67482
仕	-9.67499
▁These	-9.67505
モ	-9.67526
Sa	-9.67527
▁conflict	-9.67547
▁kan	-9.67556
ran	-9.67642
ール	-9.67651
▁shape	-9.67689
51	-9.67711
uji	-9.67717
を受けた	-9.67724
▁tried	-9.67756
98	-9.67801
家康	-9.6781
徳川	-9.67873
乱	-9.67879
存在	-9.67892
▁documents	-9.67929
▁Kane	-9.67945
▁festival	-9.67969
▁operation	-9.68033
▁support	-9.6823
▁monk	-9.68261
通り	-9.68268
▁Koku	-9.68289
▁play	-9.68339
ぼ	-9.68354
hon	-9.68368
者が	-9.68535
▁Great	-9.68597
廃止	-9.68672
計	-9.68908
73	-9.68935
▁materials	-9.69015
▁express	-9.69047
弘	-9.6905
chika	-9.6907
▁base	-9.69169
66	-9.6918
▁Route	-9.69196
ai	-9.69209
であるが	-9.69236
英	-9.69243
▁point	-9.69291
▁vassals	-9.69318
▁married	-9.69324
弓	-9.69389
農	-9.69399
gon	-9.69413
森	-9.69452
saki	-9.6953
▁me	-9.69553
par	-9.69554
▁organization	-9.6958
主に	-9.69661
含	-9.6969
素	-9.69695
▁Right	-9.69709
ure	-9.69719
ial	-9.6973
ヶ	-9.69757
ld	-9.69849
ned	-9.69858
kami	-9.69932
文書	-9.69942
▁Ie	-9.69956
▁highest	-9.69991
国家	-9.69995
)2	-9.70055
kko	-9.70062
鬼	-9.70089
▁Korean	-9.70133
公卿	-9.70243
▁constructed	-9.70249
46	-9.70258
▁Fushimi	-9.70326
▁follows	-9.70327
年間	-9.7035
にあたる	-9.70354
▁women	-9.70358
娘	-9.70466
建築	-9.7049
ことは	-9.7049
▁visit	-9.70542
▁process	-9.70622
also	-9.70623
kin	-9.70693
▁さらに	-9.70768
以上	-9.70818
▁older	-9.70826
v	-9.70833
配	-9.70839
▁read	-9.70904
47	-9.70905
hiko	-9.70918
ence	-9.71055
▁painting	-9.71123
▁lower	-9.71125
ble	-9.71218
運	-9.71218
mochi	-9.71261
▁does	-9.71372
raku	-9.71383
しか	-9.71407
chief	-9.71415
▁mi	-9.71461
MA	-9.71499
弁	-9.71609
▁car	-9.71667
細	-9.71683
taro	-9.7171
矢	-9.71715
▁Be	-9.71734
▁movement	-9.71736
land	-9.71829
秀吉	-9.7188
▁Jodo	-9.71906
倉	-9.71917
▁pa	-9.71919
設置	-9.71946
Ku	-9.71968
Go	-9.7197
▁establishment	-9.71998
▁waka	-9.72036
選	-9.72087
坊	-9.72116
付け	-9.72154
よく	-9.72161
▁occurred	-9.72184
fuku	-9.72216
less	-9.72223
▁visited	-9.72224
▁carried	-9.72248
死去	-9.72251
階	-9.72253
接	-9.72285
しく	-9.72289
栄	-9.72373
晴	-9.72445
▁Ltd	-9.72512
▁Left	-9.7258
政権	-9.72607
中に	-9.72677
のような	-9.72728
ぬ	-9.72795
57	-9.7281
皇	-9.72851
鳥	-9.72863
02	-9.7287
▁bo	-9.72884
▁Fuji	-9.72918
移	-9.72923
▁raised	-9.73142
▁fall	-9.73161
▁central	-9.73233
▁conducted	-9.73244
初代	-9.73336
92	-9.73337
▁Sutra	-9.73391
and	-9.73409
御所	-9.73429
庁	-9.73442
sada	-9.7347
shiro	-9.73549
...	-9.73632
ging	-9.7372
養	-9.73737
88	-9.73738
Shin	-9.73753
▁Dainagon	-9.73781
▁formed	-9.73805
納	-9.73837
▁reign	-9.73911
53	-9.73921
(『	-9.73936
殺	-9.73992
74	-9.74036
庵	-9.74044
しており	-9.74047
ほか	-9.74066
▁total	-9.7413
87	-9.74159
しい	-9.74211
▁cho	-9.74287
▁western	-9.74339
che	-9.74428
▁provinces	-9.74443
▁worked	-9.74458
▁latter	-9.74519
=	-9.74581
▁Gi	-9.74588
▁few	-9.74613
▁near	-9.74618
saka	-9.74632
層	-9.74644
内容	-9.74731
ight	-9.74773
▁certain	-9.74786
同年	-9.74823
術	-9.74843
▁spring	-9.74863
のために	-9.74885
交	-9.7498
nen	-9.74995
▁come	-9.75028
wi	-9.75029
▁poem	-9.75051
▁lords	-9.75209
ながら	-9.7523
per	-9.75257
▁already	-9.7526
koji	-9.75262
しょう	-9.75331
右衛門	-9.75331
じょう	-9.7536
44	-9.75399
▁Mino	-9.75407
gami	-9.75428
▁rule	-9.75431
▁cha	-9.75444
▁HOSOKAWA	-9.75464
九	-9.75469
者の	-9.75509
札	-9.75591
▁assigned	-9.75669
KAWA	-9.7573
同じ	-9.75751
shaped	-9.7576
伏見	-9.75823
を指す	-9.75945
らず	-9.75957
K	-9.76053
hiro	-9.76054
▁got	-9.76055
▁caused	-9.76083
pu	-9.76152
52	-9.76192
黄	-9.76213
03	-9.76229
テ	-9.76231
歩	-9.76281
日本書紀	-9.76284
▁With	-9.76305
天文	-9.76359
翌年	-9.76401
容	-9.76401
置	-9.76451
泉	-9.76454
▁upon	-9.76473
没	-9.76524
64	-9.76525
引き	-9.76556
賢	-9.7656
一般	-9.76596
早	-9.76649
old	-9.76719
take	-9.76734
▁command	-9.76744
▁granted	-9.76768
ff	-9.76812
91	-9.76868
機	-9.76869
zoku	-9.7691
toshi	-9.76985
ネ	-9.77044
71	-9.77081
返	-9.77084
関白	-9.77137
防	-9.77173
▁mid	-9.7721
rd	-9.77218
72	-9.77248
湯	-9.7725
孝	-9.7725
させる	-9.77255
▁eight	-9.77305
▁night	-9.77391
合戦	-9.77407
▁だが	-9.77409
時に	-9.77441
fer	-9.77487
遊	-9.77492
故	-9.77528
▁Me	-9.77546
がいる	-9.77564
▁garden	-9.77598
射	-9.77667
▁we	-9.77734
平氏	-9.77748
mae	-9.7776
飯	-9.77799
Ta	-9.77859
▁First	-9.7786
帰	-9.77909
▁production	-9.77958
追	-9.77958
mune	-9.77963
);	-9.77998
tei	-9.7811
▁include	-9.7819
伊勢	-9.78204
▁party	-9.78339
勅	-9.78354
▁sister	-9.78366
)1	-9.78375
神道	-9.78427
▁Ritsuryo	-9.78442
▁letter	-9.78472
ではない	-9.78492
▁St	-9.7856
▁fish	-9.78642
京阪	-9.78643
銅	-9.78647
▁Fourth	-9.78664
▁Then	-9.78689
第一	-9.7869
によれば	-9.78745
▁generations	-9.78787
将	-9.78801
▁text	-9.78857
備	-9.78884
習	-9.78906
麻呂	-9.78922
▁street	-9.78929
奏	-9.78971
港	-9.78999
▁policy	-9.78999
ization	-9.79005
年代	-9.79032
nyo	-9.79058
▁While	-9.7914
head	-9.79219
の乱	-9.79224
武家	-9.79233
▁se	-9.79237
材	-9.79249
▁taking	-9.79287
現代	-9.79455
▁say	-9.79526
スト	-9.79592
侍	-9.79619
▁white	-9.79621
▁saying	-9.79729
片	-9.79787
奉行	-9.79845
▁wa	-9.79848
07	-9.79878
▁gods	-9.79886
▁priests	-9.79952
ged	-9.79973
にかけて	-9.79984
▁HOJO	-9.79992
▁authority	-9.80075
人が	-9.80095
RI	-9.80145
肉	-9.80205
柳	-9.80205
nosuke	-9.80323
▁return	-9.80376
▁existed	-9.80418
kiyo	-9.80445
king	-9.805
三郎	-9.80516
編	-9.80549
Hi	-9.80606
line	-9.80626
▁fifth	-9.80628
▁Yoshitsune	-9.80665
▁Jun	-9.80672
▁Bo	-9.80675
からは	-9.80691
76	-9.80719
Kan	-9.80748
泰	-9.80778
▁date	-9.80789
od	-9.80849
zai	-9.80882
開業	-9.80919
鏡	-9.80922
▁money	-9.80922
余	-9.81001
れば	-9.81016
喜	-9.81032
難	-9.81049
と考えられている	-9.81079
▁Nari	-9.81119
year	-9.81173
技術	-9.81214
haru	-9.81231
薬	-9.81262
kon	-9.8128
63	-9.81283
切り	-9.81307
tra	-9.81389
の中	-9.81482
皇族	-9.81502
▁change	-9.81506
高い	-9.81511
tor	-9.81544
▁structure	-9.81571
▁TO	-9.81572
菩薩	-9.81573
急	-9.81579
都市	-9.81581
パ	-9.81612
になって	-9.81634
▁Electric	-9.81644
注	-9.81646
考え	-9.81667
席	-9.81673
▁京都	-9.81802
▁Governor	-9.8188
▁writing	-9.81934
▁abolished	-9.81971
▁generally	-9.82009
ben	-9.82042
詞	-9.82079
▁divided	-9.82092
▁much	-9.82102
les	-9.82107
周辺	-9.82231
▁gradually	-9.82298
▁light	-9.8231
09	-9.82345
GA	-9.82348
▁color	-9.82444
▁hard	-9.82538
▁kept	-9.8259
▁performance	-9.82598
Su	-9.82655
▁attacked	-9.82705
尚	-9.82736
▁leading	-9.82776
▁woman	-9.82818
▁thus	-9.82886
製	-9.82888
▁serve	-9.82898
襲	-9.82924
▁administration	-9.8303
Ma	-9.83049
▁records	-9.83054
羅	-9.83068
▁added	-9.83073
97	-9.83093
へと	-9.83136
打	-9.83156
▁province	-9.83168
▁ryo	-9.83171
状	-9.83191
の中で	-9.83206
maki	-9.83322
精	-9.83359
を受けて	-9.83425
▁Kamo	-9.83556
▁operated	-9.83572
寺の	-9.83576
散	-9.83683
cy	-9.83688
指	-9.8372
▁KI	-9.83732
ue	-9.83782
▁compiled	-9.8379
敵	-9.83833
対立	-9.83991
▁practice	-9.84025
が多い	-9.84032
▁gold	-9.84049
貫	-9.84063
であったが	-9.84107
念	-9.84147
96	-9.84234
▁description	-9.84241
装	-9.84246
鹿	-9.84286
▁serving	-9.84286
ズ	-9.84303
問	-9.84304
罪	-9.84328
▁Year	-9.84361
▁route	-9.84386
極	-9.84396
▁per	-9.84421
▁volume	-9.84459
Ki	-9.84483
と呼ぶ	-9.84499
剣	-9.84504
▁日本	-9.84564
嘉	-9.84627
古代	-9.84637
優	-9.84661
宇治	-9.84756
場所	-9.84775
参議	-9.8484
なる	-9.84867
▁literature	-9.84883
▁subject	-9.84959
lt	-9.85001
100	-9.8506
起	-9.85129
▁officer	-9.85174
▁studied	-9.85183
gra	-9.85216
▁red	-9.85241
later	-9.85295
陽	-9.85318
われ	-9.8532
kura	-9.85348
▁wooden	-9.85434
柄	-9.85483
なか	-9.85553
多く	-9.8557
事業	-9.85582
深	-9.8559
留	-9.85795
▁powerful	-9.85815
▁Monogatari	-9.85861
、18	-9.85863
▁同年	-9.85981
ster	-9.86038
que	-9.86051
▁po	-9.86083
naka	-9.8609
浜	-9.86104
▁district	-9.86131
皇后	-9.86135
ishi	-9.86199
▁directly	-9.86209
辺	-9.86244
功	-9.86246
▁ro	-9.86258
▁railway	-9.86315
▁100	-9.86347
▁Shogunate	-9.86409
孫	-9.86466
松平	-9.86512
方の	-9.8654
戦国時代	-9.86542
▁Moro	-9.86613
プ	-9.86683
▁それ	-9.86721
源氏物語	-9.86798
▁foreign	-9.86812
tomo	-9.86905
ット	-9.86921
▁Crown	-9.87
邸	-9.87074
中の	-9.87082
▁get	-9.87094
儀	-9.87125
時間	-9.87132
▁Takeda	-9.87136
倭	-9.87148
▁Furthermore	-9.87153
関東	-9.87176
甲	-9.87222
演	-9.87279
nce	-9.87304
歌舞伎	-9.87304
折	-9.87318
▁regions	-9.87322
足利義	-9.87407
ration	-9.87447
▁Restoration	-9.8746
tal	-9.87494
▁minister	-9.87496
桂	-9.87537
▁sub	-9.87572
ide	-9.87654
▁su	-9.87656
▁development	-9.87702
統	-9.8772
▁legend	-9.87768
走	-9.87841
近江	-9.87862
結果	-9.87894
を経て	-9.8791
▁female	-9.87987
重要文化財	-9.88001
▁property	-9.88001
▁purpose	-9.88076
▁living	-9.88154
tr	-9.88161
uchi	-9.88255
▁shin	-9.8826
▁lines	-9.88261
かけ	-9.8835
dono	-9.88414
名を	-9.88431
示	-9.88479
▁Kawachi	-9.88498
gai	-9.88558
▁ki	-9.88572
照	-9.88608
形式	-9.88679
RA	-9.88687
さん	-9.88734
判	-9.88739
▁inside	-9.88774
入り	-9.88792
0,000	-9.88841
▁road	-9.8886
堀	-9.8897
らの	-9.88972
天正	-9.88978
が多く	-9.88997
▁ba	-9.89009
建設	-9.89013
hide	-9.89095
▁Saga	-9.89106
仁親王	-9.89111
▁ground	-9.89138
SU	-9.89141
荘園	-9.89167
情	-9.89261
かん	-9.89307
▁Toyo	-9.89348
拝	-9.89382
ものの	-9.89385
グ	-9.89396
▁states	-9.89401
雅	-9.89422
特	-9.89459
自ら	-9.89479
ian	-9.89548
hashi	-9.89579
まれ	-9.89599
たい	-9.89669
▁Sanjo	-9.89693
▁followed	-9.89714
▁how	-9.89749
歴史	-9.89809
に対し	-9.89815
▁scene	-9.89851
toki	-9.89858
▁shu	-9.89946
▁seems	-9.89966
の一部	-9.89967
▁involved	-9.90026
▁higher	-9.90031
年には	-9.90222
tle	-9.90242
▁ju	-9.90272
▁selected	-9.90294
こともある	-9.90299
近衛	-9.90339
ポ	-9.90421
▁big	-9.90446
▁give	-9.9045
▁says	-9.90456
氏は	-9.90466
頼朝	-9.9048
▁eldest	-9.905
▁especially	-9.90502
慶長	-9.9055
for	-9.90627
おお	-9.90688
然	-9.9074
V	-9.90747
mm	-9.90776
▁provincial	-9.90778
▁And	-9.90802
運転	-9.90826
▁successor	-9.90828
者は	-9.9095
▁Her	-9.90995
▁Land	-9.91064
▁nation	-9.91092
める	-9.91217
200	-9.91261
上皇	-9.91268
妙	-9.91294
▁Ba	-9.91321
ような	-9.91322
羽	-9.91334
▁limited	-9.9134
▁Gyo	-9.91367
歳で	-9.914
まり	-9.91409
up	-9.91453
▁Act	-9.91465
派の	-9.91596
ほ	-9.91607
税	-9.9161
理由	-9.91623
路線	-9.91638
▁heir	-9.91648
▁lineage	-9.91677
▁State	-9.91693
qui	-9.91708
▁dai	-9.91823
ul	-9.91889
方面	-9.9193
訳	-9.91934
案	-9.91934
▁foot	-9.92015
ple	-9.92049
▁Toku	-9.92077
▁month	-9.9226
はその	-9.92321
▁Kore	-9.92335
しない	-9.92358
▁Con	-9.9239
▁supported	-9.92393
必要	-9.92421
国宝	-9.92481
万石	-9.92521
したため	-9.92542
メートル	-9.92579
▁Company	-9.92579
ギ	-9.92581
▁worship	-9.92657
▁themselves	-9.9266
営	-9.92752
までの	-9.92785
▁fell	-9.92834
▁trade	-9.92836
▁councilor	-9.92839
生活	-9.92852
に関する	-9.92864
ition	-9.9287
浦	-9.9287
San	-9.92891
▁almost	-9.92903
▁Bosatsu	-9.92907
▁descendants	-9.92915
大きく	-9.92938
列	-9.92946
lation	-9.92954
lic	-9.92974
家は	-9.93008
の後	-9.93039
恵	-9.9306
後期	-9.93129
▁custom	-9.93183
和歌	-9.93185
生まれ	-9.93281
声	-9.93309
▁my	-9.93311
間の	-9.9338
庭	-9.93389
▁Nijo	-9.93455
▁research	-9.93457
報	-9.93463
張	-9.93534
omi	-9.93538
ボ	-9.93637
これら	-9.93639
▁sauce	-9.93643
中世	-9.93653
日記	-9.93729
nu	-9.93761
▁Hongan	-9.93824
本願寺	-9.9388
域	-9.93888
セ	-9.93942
▁cut	-9.93951
▁itself	-9.93963
▁below	-9.93972
どう	-9.93996
▁asked	-9.94025
cm	-9.94032
供	-9.94052
08	-9.9406
▁usually	-9.94061
次郎	-9.94063
波	-9.9411
ura	-9.94112
非	-9.9412
▁estate	-9.94127
em	-9.94166
ries	-9.94215
ang	-9.94247
補	-9.94261
jima	-9.94263
須	-9.94291
▁belonged	-9.94386
▁("	-9.94398
賞	-9.94445
▁Shugo	-9.94452
is	-9.94513
積	-9.94514
▁season	-9.94542
思想	-9.94543
読	-9.94548
KU	-9.94572
▁ga	-9.94574
茂	-9.94683
ities	-9.94704
▁これ	-9.94716
▁director	-9.94721
zuka	-9.94725
割	-9.94725
交通	-9.9475
port	-9.94785
魚	-9.94867
▁remained	-9.949
ct	-9.94913
差	-9.94923
額	-9.9495
▁Maizuru	-9.94952
大臣	-9.94953
▁refer	-9.95055
題	-9.9508
▁low	-9.95092
ヒ	-9.95109
敬	-9.95116
ろう	-9.9518
Dai	-9.95258
のである	-9.95262
ology	-9.95314
検	-9.95356
▁event	-9.9536
▁reform	-9.95381
聞	-9.95417
土地	-9.95456
▁Tendai	-9.95611
敷	-9.95627
JI	-9.9563
贈	-9.95692
med	-9.95694
▁父は	-9.95794
▁oldest	-9.95833
eki	-9.95835
row	-9.9584
再び	-9.95882
▁article	-9.95941
▁poet	-9.95953
▁level	-9.95975
もあり	-9.96088
大夫	-9.96092
大きな	-9.96149
としている	-9.96176
ow	-9.96315
saku	-9.96356
▁Goshirakawa	-9.96367
▁though	-9.96409
を行った	-9.96445
▁Hira	-9.96606
築	-9.9664
れる	-9.96665
▁Ge	-9.96684
郎	-9.96685
ies	-9.96697
▁V	-9.96728
▁Ne	-9.96745
人々	-9.96772
句	-9.96786
陵	-9.96821
▁face	-9.9683
▁ta	-9.96859
SA	-9.96961
▁TA	-9.96971
ical	-9.97013
W	-9.97014
計画	-9.97029
▁social	-9.97041
特徴	-9.97043
寛永	-9.97063
めた	-9.97114
のもの	-9.97132
▁outside	-9.97182
未	-9.97191
近代	-9.97192
▁MATSUDAIRA	-9.9721
▁World	-9.9721
洋	-9.97227
▁第	-9.97234
によると	-9.97269
▁provided	-9.9728
級	-9.97342
よりも	-9.9736
▁II	-9.97501
▁further	-9.97549
▁Ari	-9.97554
▁author	-9.97615
▁Department	-9.97634
夏	-9.97719
▁roof	-9.97725
▁このため	-9.97798
▁succession	-9.97812
▁Kawa	-9.9784
庄	-9.97889
上げ	-9.97934
▁volumes	-9.97948
牛	-9.97974
So	-9.97986
▁issue	-9.97998
ther	-9.98026
那	-9.9806
▁Kata	-9.98101
卿	-9.98122
違い	-9.98126
▁idea	-9.98129
▁jo	-9.98138
▁2006	-9.98151
程度	-9.98154
家臣	-9.98166
▁forced	-9.98186
▁Retired	-9.98231
これに	-9.98233
ことが多い	-9.98245
舞鶴	-9.98291
▁Haru	-9.98311
異なる	-9.9833
▁posts	-9.98387
▁act	-9.98394
崇	-9.98402
これは	-9.98429
▁Even	-9.98445
▁handed	-9.98467
▁Village	-9.98494
有力	-9.98499
及	-9.98525
天保	-9.98553
▁Kabuki	-9.98586
500	-9.98602
デ	-9.98659
枚	-9.98659
▁母は	-9.98697
▁lot	-9.98719
▁Nin	-9.98757
受	-9.98774
▁High	-9.98775
▁statues	-9.98786
gura	-9.98813
平安時代	-9.98825
(6	-9.98835
鎌倉幕府	-9.98838
▁同	-9.98866
の際に	-9.98877
出した	-9.9889
▁Chunagon	-9.98919
幅	-9.98934
setsu	-9.98945
▁film	-9.98954
』『	-9.98982
れた	-9.99001
墓	-9.99004
属	-9.99079
最も	-9.99083
ger	-9.99118
▁Otsu	-9.99149
▁resigned	-9.99262
奈良県	-9.99279
ようになった	-9.99335
▁students	-9.99341
▁exist	-9.99374
04	-9.99409
にして	-9.9941
▁2007	-9.99417
Fu	-9.99433
尺	-9.99435
昌	-9.99521
Z	-9.99523
der	-9.99585
hisa	-9.99601
▁run	-9.99623
彼	-9.99631
ことで	-9.99638
▁buildings	-9.99684
▁natural	-9.99695
機関	-9.997
二条	-9.9971
表記	-9.99716
版	-9.9973
左衛門	-9.99739
▁originated	-9.99808
▁States	-9.9984
厚	-9.99868
▁ni	-9.99876
紋	-9.99879
▁fight	-9.99895
▁Town	-9.99979
▁cars	-10.0004
▁Army	-10.0004
冬	-10.0013
▁finally	-10.0018
_(	-10.0019
zane	-10.0019
と考えられる	-10.0019
生まれた	-10.0021
▁never	-10.0022
▁field	-10.0026
我	-10.0028
▁grave	-10.0031
中村	-10.0034
雪	-10.0039
▁throughout	-10.0049
短	-10.0056
つく	-10.0062
以	-10.0063
▁appears	-10.0065
嗣	-10.0065
▁length	-10.0065
等の	-10.0066
▁sense	-10.0072
▁silver	-10.0074
上の	-10.0079
▁Household	-10.0083
はこの	-10.0085
06	-10.009
養子	-10.0096
寮	-10.0099
の戦い	-10.0109
刻	-10.0109
▁series	-10.011
▁whole	-10.011
▁full	-10.0118
ral	-10.0127
car	-10.0132
▁Island	-10.0136
おり	-10.0137
医	-10.0139
山城	-10.0139
あった	-10.0144
かつて	-10.0147
といわれる	-10.0152
▁brothers	-10.0153
▁sold	-10.0155
以下	-10.0156
禁	-10.0156
fo	-10.0156
km	-10.0158
発行	-10.0179
▁pass	-10.0184
▁tree	-10.0186
になり	-10.0193
gar	-10.0194
shaku	-10.0196
熱	-10.0198
施設	-10.0198
▁commonly	-10.0203
▁keep	-10.0203
▁Te	-10.0204
状態	-10.0207
当主	-10.0209
焼き	-10.0213
▁Shiga	-10.0216
純	-10.0224
奉	-10.0224
▁Bi	-10.0225
mer	-10.023
ック	-10.023
▁becoming	-10.0233
評価	-10.0233
05	-10.0234
細川	-10.0236
▁Its	-10.0236
鎮	-10.0238
DO	-10.0241
val	-10.0246
▁kuni	-10.0248
らが	-10.0249
史料	-10.0253
▁Mutsu	-10.0267
▁paintings	-10.0267
▁Musashi	-10.0269
ory	-10.0272
tter	-10.0278
存	-10.0282
▁Un	-10.0286
▁object	-10.0287
called	-10.0291
▁course	-10.0292
rn	-10.0295
▁Kiyomori	-10.0307
▁persons	-10.0307
所領	-10.0311
軍事	-10.0315
of	-10.0318
江戸幕府	-10.0318
休	-10.0322
立て	-10.0322
▁Affairs	-10.0323
▁dynasty	-10.0332
▁na	-10.0339
zaemon	-10.0343
伝承	-10.0344
▁positions	-10.0344
陸軍	-10.0345
▁elder	-10.0359
bushi	-10.0365
▁priesthood	-10.0369
▁Hojo	-10.0372
▁show	-10.0376
ようになる	-10.0381
▁past	-10.0386
反対	-10.0387
徳川家	-10.0387
学者	-10.0388
内の	-10.0392
▁Amida	-10.0395
の手	-10.0396
運動	-10.0398
▁pieces	-10.0398
たもの	-10.04
を中心に	-10.0403
goku	-10.0404
表現	-10.0408
Minister	-10.041
軽	-10.0421
資料	-10.0422
miya	-10.0424
候	-10.0431
▁30	-10.0438
▁too	-10.0439
▁hot	-10.0439
▁document	-10.044
祝	-10.044
録	-10.0447
light	-10.0451
豊臣秀吉	-10.0452
▁Shingon	-10.0453
▁enter	-10.0458
▁特に	-10.046
▁standing	-10.0463
背	-10.0466
ことになる	-10.0469
評	-10.0473
するため	-10.0477
▁Tanba	-10.0478
▁Law	-10.0479
)5	-10.0481
共	-10.0484
▁increased	-10.0496
▁fa	-10.0496
▁details	-10.0504
従五位下	-10.0514
失	-10.0517
姿	-10.0517
待	-10.0518
第二	-10.0524
正月	-10.0526
we	-10.0527
▁G	-10.0528
体制	-10.0528
▁human	-10.0532
▁design	-10.0536
奪	-10.0538
出し	-10.054
▁location	-10.055
えた	-10.0551
策	-10.0555
ソ	-10.0559
用いられる	-10.0559
政策	-10.0562
武田	-10.0569
Imperial	-10.0569
とされ	-10.0573
貴	-10.0577
▁Kansai	-10.0585
▁Tame	-10.0586
▁Asuka	-10.0588
舎	-10.059
▁board	-10.059
jingu	-10.0592
yaki	-10.0594
▁MI	-10.06
▁Oki	-10.0602
請	-10.0604
絶	-10.0609
塚	-10.0612
▁Inner	-10.0614
兄弟	-10.0617
則	-10.0617
▁Ra	-10.062
ex	-10.062
▁coins	-10.0627
pro	-10.0628
▁leader	-10.0636
▁ran	-10.0639
除	-10.0641
▁owned	-10.0641
勘	-10.0642
便	-10.0642
▁events	-10.0647
以来	-10.0653
▁services	-10.0659
▁la	-10.066
▁sixth	-10.0662
ただ	-10.0663
観音	-10.0664
まった	-10.0664
▁u	-10.0667
群	-10.067
柱	-10.067
▁horse	-10.0671
▁enemy	-10.068
▁river	-10.0681
監督	-10.0688
▁possible	-10.0689
leg	-10.0691
元禄	-10.0697
▁might	-10.0698
▁accepted	-10.07
辞	-10.0704
目的	-10.0705
編纂	-10.0708
▁Nichiren	-10.0708
給	-10.0714
oji	-10.0714
それを	-10.0717
nao	-10.0724
▁Many	-10.0725
▁rest	-10.0726
経済	-10.0726
▁shugo	-10.073
date	-10.0732
▁less	-10.0733
uta	-10.0736
▁Art	-10.0736
▁East	-10.0745
▁Owari	-10.0747
▁spirit	-10.0748
ダ	-10.0748
▁training	-10.0749
▁direction	-10.0749
以外	-10.0749
を見	-10.075
▁clans	-10.0751
際に	-10.0753
▁Education	-10.0754
▁activities	-10.0754
▁whether	-10.0754
▁Oda	-10.0758
日の	-10.076
弥	-10.0763
▁Prefectural	-10.0764
ia	-10.0766
身分	-10.0775
になると	-10.0775
宗教	-10.0778
はない	-10.0778
▁Pa	-10.0778
nan	-10.0779
▁hold	-10.0779
▁br	-10.078
とされた	-10.0786
内に	-10.0792
髪	-10.0792
▁northern	-10.0792
▁Tango	-10.0794
派遣	-10.0794
子は	-10.0795
建立	-10.0798
▁open	-10.0798
▁Bureau	-10.08
▁widely	-10.0801
ほとんど	-10.0802
▁port	-10.0806
)8	-10.0807
登	-10.0807
苦	-10.0811
始	-10.0816
可能	-10.0818
▁trans	-10.0818
もので	-10.0818
文字	-10.0824
決定	-10.0825
▁conferred	-10.083
▁ge	-10.0832
俗	-10.0835
▁occasion	-10.0838
屋敷	-10.0839
▁Ryu	-10.084
▁guard	-10.0845
足利	-10.0846
持ち	-10.0847
▁Moreover	-10.0849
以下の	-10.0849
▁except	-10.0855
▁clear	-10.0858
fe	-10.0858
せず	-10.0858
免	-10.0862
想	-10.0865
▁walk	-10.0868
BE	-10.0868
▁Katsu	-10.087
▁一方	-10.0871
)12	-10.0872
じた	-10.0873
義経	-10.0873
")	-10.0876
SE	-10.0876
刑	-10.0877
とう	-10.0879
▁male	-10.0881
▁Takauji	-10.0881
▁inherited	-10.0882
国司	-10.0884
強い	-10.0887
▁composed	-10.089
ヤ	-10.0896
▁independent	-10.0896
▁If	-10.0898
のち	-10.0901
誕生	-10.0906
のある	-10.0907
管	-10.091
招	-10.0915
▁Nyorai	-10.0916
打ち	-10.0918
月には	-10.0927
▁But	-10.0928
councilor	-10.0934
▁Among	-10.0934
shed	-10.094
談	-10.0942
成立	-10.0948
言葉	-10.0949
end	-10.0953
mission	-10.0954
となって	-10.0955
▁Association	-10.0958
▁sen	-10.0958
一部	-10.0965
練	-10.0973
▁suke	-10.0976
▁Fuku	-10.0978
ig	-10.0984
厳	-10.0987
ami	-10.0987
専	-10.0988
▁Kyu	-10.0991
▁required	-10.0997
dic	-10.1001
▁disciple	-10.1008
let	-10.1011
zumi	-10.1014
▁eastern	-10.1015
だい	-10.1017
織田信長	-10.1018
去	-10.102
時の	-10.103
出家	-10.1048
発展	-10.1057
江戸時代	-10.106
管理	-10.1061
▁Kazu	-10.1064
)7	-10.1066
負	-10.1068
▁society	-10.1069
ワ	-10.1072
幕	-10.1079
▁theories	-10.1079
の間	-10.1084
祀	-10.1085
ほう	-10.1093
幕末	-10.1093
代将軍	-10.1106
伴	-10.1107
▁square	-10.1108
元号	-10.1112
▁stations	-10.1115
▁active	-10.1119
と思われる	-10.112
時代の	-10.112
goro	-10.1123
状況	-10.1127
かり	-10.1128
尼	-10.1131
▁drama	-10.1141
亀	-10.1148
▁Captain	-10.1149
許	-10.115
▁fields	-10.1152
▁hon	-10.1152
毛	-10.1155
復	-10.1159
憲	-10.1159
house	-10.1161
大津	-10.1163
▁Minamoto	-10.1164
送	-10.1166
胤	-10.1166
▁Nihon	-10.1172
▁HA	-10.1174
旨	-10.1175
▁deep	-10.1177
▁imp	-10.1186
されており	-10.1188
織田	-10.1191
飛	-10.1194
方法	-10.121
本尊	-10.1211
独立	-10.1217
ened	-10.1219
▁difficult	-10.122
▁manor	-10.123
地に	-10.1232
▁2,	-10.1233
▁inter	-10.1233
▁exchange	-10.1235
▁highly	-10.1236
通常	-10.124
▁三	-10.1242
」、「	-10.1247
▁live	-10.1254
vis	-10.1254
▁Oto	-10.1264
▁prevent	-10.1265
の影響	-10.1265
因	-10.1266
儀式	-10.1267
やま	-10.1268
▁arts	-10.1269
するが	-10.1274
▁Ke	-10.1301
▁Daigo	-10.1305
▁Choshu	-10.1311
ホーム	-10.1314
副	-10.1324
▁particular	-10.1324
▁shoen	-10.1329
開発	-10.133
関西	-10.1331
秘	-10.1334
直接	-10.1338
皇女	-10.1339
▁going	-10.1345
▁mikoto	-10.1353
▁arrow	-10.1354
つの	-10.1355
▁Kage	-10.1359
五郎	-10.1363
▁deities	-10.1367
権力	-10.1368
TO	-10.1371
▁lunar	-10.1374
▁By	-10.1379
▁Lo	-10.1381
したという	-10.1382
隠	-10.1383
▁swords	-10.1387
▁groups	-10.1392
広く	-10.1392
紫	-10.1393
▁education	-10.1405
▁yen	-10.1405
In	-10.1405
▁han	-10.1406
▁must	-10.1412
血	-10.1413
樹	-10.1414
▁treated	-10.1414
ot	-10.1414
もあった	-10.142
代表	-10.1425
建物	-10.1428
に入	-10.1429
京都の	-10.1438
果	-10.144
変化	-10.1442
▁Pro	-10.1442
stra	-10.1443
妹	-10.1444
lar	-10.1444
▁regent	-10.1445
▁seventh	-10.1454
▁request	-10.1457
文学	-10.1464
設立	-10.1465
南朝	-10.1466
kasa	-10.147
入れ	-10.147
ホ	-10.1474
Yo	-10.1476
保存	-10.1476
コン	-10.1478
)6	-10.1478
▁approximately	-10.1479
国際	-10.1483
藩の	-10.1484
▁little	-10.1484
du	-10.1491
▁rather	-10.1495
技	-10.1499
▁start	-10.15
範	-10.1508
▁love	-10.151
観光	-10.1511
北条	-10.1513
したこと	-10.1514
減	-10.1514
従三位	-10.1515
▁Sangi	-10.1517
亡	-10.1521
jun	-10.1522
まる	-10.1525
の上	-10.1526
行き	-10.1528
▁J	-10.1535
ified	-10.1538
▁towns	-10.1555
妃	-10.1555
ものが	-10.1557
▁wear	-10.156
▁recorded	-10.1564
王朝	-10.1564
初期	-10.157
kane	-10.157
受け	-10.1573
▁Property	-10.1576
自然	-10.1577
▁Ren	-10.1578
cal	-10.158
▁things	-10.158
▁parts	-10.1581
見られる	-10.1581
寺社	-10.1587
▁envoy	-10.1589
天下	-10.159
▁sun	-10.159
WA	-10.1592
になっている	-10.1593
fa	-10.1594
▁gr	-10.1596
抄	-10.1596
▁information	-10.1596
組織	-10.1597
付近	-10.1599
▁pray	-10.16
並	-10.1603
書き	-10.1603
葬	-10.1606
▁享年	-10.1607
立ち	-10.161
▁here	-10.1613
▁Ca	-10.1615
と言う	-10.1624
▁learned	-10.1624
▁Da	-10.1639
市の	-10.1646
▁chapter	-10.1647
籠	-10.1647
徳川家康	-10.1649
街道	-10.1651
▁honor	-10.1653
完成	-10.1654
小路	-10.1655
pen	-10.1656
▁Ashikaga	-10.1658
改革	-10.1658
▁Ancient	-10.1659
舞台	-10.166
衛	-10.1665
▁ritsuryo	-10.1668
▁NAKAMURA	-10.1668
▁properties	-10.1678
鳥羽	-10.1679
vol	-10.168
Ya	-10.1681
jutsu	-10.1683
づ	-10.1684
壁	-10.1687
菊	-10.1688
▁actually	-10.1688
▁Shimo	-10.1691
gumi	-10.1692
宗家	-10.1694
Jo	-10.1695
率	-10.1697
呼称	-10.1699
▁running	-10.17
なら	-10.1703
▁KU	-10.1705
御家人	-10.1709
▁ranks	-10.1711
HARA	-10.1716
▁lead	-10.172
▁sha	-10.1724
▁reached	-10.1731
▁opinion	-10.1734
hai	-10.1734
▁wood	-10.1735
雨	-10.1739
▁trees	-10.1743
CHI	-10.1744
ice	-10.1751
独	-10.1758
▁code	-10.176
▁3,	-10.176
HO	-10.176
▁actual	-10.1762
翌	-10.1762
確立	-10.1762
lit	-10.1763
▁Mikoto	-10.1765
▁terms	-10.1765
nami	-10.1767
tama	-10.1769
歌人	-10.1772
▁technique	-10.1776
閣	-10.1778
▁legitimate	-10.1781
▁mound	-10.1782
▁wide	-10.1788
新聞	-10.1788
至	-10.1789
温	-10.1791
▁products	-10.1792
▁silk	-10.1792
限	-10.1797
てきた	-10.1799
冠	-10.1802
▁MORI	-10.1802
▁principal	-10.1803
と言われている	-10.1804
ine	-10.1805
道路	-10.1807
せん	-10.1809
個	-10.1811
様々な	-10.1813
ations	-10.1815
▁Tei	-10.1819
禄	-10.182
調査	-10.1823
戦争	-10.1825
▁travel	-10.1827
境	-10.1827
記述	-10.1829
▁藤原	-10.1835
降	-10.1837
▁domains	-10.184
可	-10.184
薄	-10.1844
▁Fukuchiyama	-10.1844
▁tomb	-10.1844
▁Todai	-10.1846
そのまま	-10.1848
運行	-10.1852
とある	-10.1852
▁far	-10.1861
諸国	-10.1862
荒	-10.1864
之助	-10.1869
継承	-10.1873
勲	-10.1875
続	-10.188
law	-10.1881
▁value	-10.1883
監	-10.1886
の三	-10.1886
東大寺	-10.1886
経由	-10.1888
▁一	-10.189
後は	-10.1891
low	-10.1895
籍	-10.1895
次第に	-10.1899
室町幕府	-10.19
▁dishes	-10.19
られていた	-10.19
▁toward	-10.1905
稲	-10.1906
Nihonshoki	-10.1908
行われた	-10.1922
明治時代	-10.1923
▁Showa	-10.1932
▁administrative	-10.1933
神宮	-10.1933
▁presented	-10.1934
就	-10.1938
▁awarded	-10.1939
▁coming	-10.194
▁Chika	-10.1948
販売	-10.1949
iwa	-10.195
ions	-10.1951
▁gun	-10.196
古事記	-10.196
の武将	-10.196
までは	-10.1962
OKA	-10.1969
▁effect	-10.1969
中心	-10.1971
織	-10.1974
皇太子	-10.1981
▁Upper	-10.1982
▁newly	-10.1986
▁Li	-10.1988
▁Le	-10.1989
通称	-10.1991
▁minutes	-10.1993
▁Yamashiro	-10.1993
ori	-10.1997
hen	-10.2001
告	-10.2002
▁legal	-10.2004
Head	-10.2007
封	-10.2008
山の	-10.2009
▁gained	-10.2011
▁ruling	-10.2013
press	-10.2016
▁houses	-10.2019
)10	-10.2021
算	-10.2023
騎	-10.2024
ゴ	-10.2024
▁Den	-10.2027
▁broke	-10.2028
▁Tosa	-10.2028
▁warriors	-10.2032
領主	-10.2034
吉田	-10.2038
▁dead	-10.204
激	-10.2041
採	-10.2043
粉	-10.2045
▁Important	-10.2048
kuro	-10.2048
桜	-10.2054
いわゆる	-10.2056
▁天	-10.2065
▁standard	-10.2066
▁Other	-10.2075
主義	-10.2076
譲	-10.2078
▁Council	-10.2081
右大臣	-10.2082
撰	-10.2088
輝	-10.2088
▁ticket	-10.2088
time	-10.2091
▁ranked	-10.2092
の子孫	-10.2101
▁Zo	-10.2103
立場	-10.2109
zei	-10.2112
▁sound	-10.2113
ほぼ	-10.2116
文化財	-10.2121
▁material	-10.2129
仙	-10.2129
吉野	-10.2131
の養子	-10.2135
Re	-10.2143
▁actor	-10.2145
▁descendant	-10.2151
詩	-10.2152
▁manuscript	-10.2152
SO	-10.2154
脱	-10.2157
▁tradition	-10.216
丹波	-10.2163
温泉	-10.2164
▁Bank	-10.2167
律令制	-10.2168
▁destroyed	-10.2168
近世	-10.2169
▁look	-10.2175
)11	-10.2177
前の	-10.218
▁types	-10.218
▁hereditary	-10.2181
十二	-10.2181
▁medieval	-10.2185
笠	-10.2185
ac	-10.2185
現在では	-10.2189
Chronicles	-10.2194
簡	-10.2196
邦	-10.2196
▁Ama	-10.2197
istic	-10.2198
大坂	-10.2199
内閣	-10.2199
▁Kanpaku	-10.2206
単	-10.2207
daijin	-10.2215
さい	-10.2217
初めて	-10.2218
cul	-10.2221
▁soy	-10.2222
家が	-10.2231
▁Mei	-10.2235
▁ri	-10.2239
▁21,	-10.2242
生産	-10.2246
Emperor	-10.2247
制定	-10.2251
▁appear	-10.2254
かい	-10.2255
▁size	-10.2258
▁financial	-10.2261
宋	-10.2261
形で	-10.2261
form	-10.2263
▁Kon	-10.2264
ping	-10.2266
ものは	-10.2282
一時	-10.2282
▁vi	-10.2282
MO	-10.2285
分け	-10.2288
今日	-10.2291
wara	-10.2294
▁ended	-10.2296
しん	-10.2297
▁Shinshu	-10.23
▁bamboo	-10.2303
昇	-10.2312
tsuki	-10.2314
▁interest	-10.2317
▁ca	-10.2319
teen	-10.2321
掛け	-10.2324
幕府の	-10.2326
垣	-10.2326
)9	-10.2328
▁monks	-10.2329
登場	-10.2332
害	-10.2335
▁bow	-10.2336
豪	-10.2337
▁Sui	-10.2339
輔	-10.2357
全て	-10.2358
としても	-10.2364
▁Yodo	-10.2366
▁1868	-10.2367
▁General	-10.237
▁surrounding	-10.237
cc	-10.2372
岸	-10.2385
tomi	-10.2389
▁noodles	-10.239
▁stories	-10.2393
ware	-10.24
骨	-10.2404
▁pagoda	-10.2404
▁unique	-10.2404
▁why	-10.2404
main	-10.2404
東京都	-10.2424
墨	-10.2426
▁Echizen	-10.2426
pan	-10.2428
Se	-10.2436
鶴	-10.2436
▁Center	-10.2437
log	-10.2438
▁deal	-10.2439
中で	-10.2445
▁available	-10.2448
規定	-10.245
▁2005	-10.2452
自由	-10.2453
中期	-10.2456
▁territories	-10.2459
▁formal	-10.246
できない	-10.2464
▁ban	-10.2465
攻め	-10.2467
えて	-10.247
ともいう	-10.2483
ート	-10.2483
意見	-10.2492
▁includes	-10.2511
衡	-10.2515
▁rebellion	-10.2515
▁function	-10.2515
創建	-10.2516
ぞ	-10.2517
hu	-10.2523
ong	-10.2529
音楽	-10.253
▁officers	-10.2537
随	-10.2537
▁meeting	-10.2546
大納言	-10.2547
帳	-10.2549
▁thousand	-10.2549
▁gon	-10.2549
▁sutra	-10.2549
左大臣	-10.255
▁江戸時代	-10.2554
以上の	-10.2554
たが	-10.256
僧侶	-10.256
流派	-10.2562
▁won	-10.2562
tive	-10.2564
の一人	-10.2565
海軍	-10.2567
徒	-10.2568
律令	-10.2569
寸	-10.2571
▁representative	-10.2571
やがて	-10.2573
▁distinguished	-10.2577
構成	-10.2577
人間	-10.2578
dra	-10.258
▁husband	-10.2582
▁childhood	-10.2583
oi	-10.2585
▁Higashiyama	-10.2588
wn	-10.2589
児	-10.2592
を取り	-10.2596
▁Waka	-10.2597
bei	-10.2597
▁Jugoinoge	-10.2598
ようになり	-10.2599
▁black	-10.2605
lin	-10.2609
gre	-10.261
忍	-10.2616
cla	-10.2618
当初	-10.2622
▁後に	-10.2623
父の	-10.2624
区間	-10.2624
陸	-10.2626
▁respectively	-10.263
あまり	-10.263
変更	-10.2633
oki	-10.2639
▁kai	-10.2648
▁Government	-10.265
▁individual	-10.265
なった	-10.265
▁sweet	-10.2653
▁Izumo	-10.2656
▁single	-10.2662
東山	-10.2668
▁memorial	-10.2673
▁Settsu	-10.2673
▁Kintetsu	-10.2674
認められ	-10.2674
改め	-10.2678
▁Additionally	-10.2684
▁recognized	-10.2686
上で	-10.2686
整備	-10.2689
別当	-10.2691
線の	-10.2693
行政	-10.2696
▁dish	-10.2705
橘	-10.2707
▁immediately	-10.2707
▁Grand	-10.2711
▁Mitsuhide	-10.272
▁recent	-10.272
▁completely	-10.2725
Y	-10.2725
北条氏	-10.2725
▁able	-10.2726
遣	-10.2728
▁always	-10.273
ification	-10.2739
日本人	-10.2741
正室	-10.2743
▁du	-10.2745
▁escaped	-10.2749
祖父	-10.2749
近江国	-10.2752
▁Godaigo	-10.2753
Ten	-10.2755
イン	-10.2756
起源	-10.2756
一条	-10.276
上洛	-10.2761
巡	-10.2763
satsu	-10.2768
の長男	-10.2769
中宮	-10.2775
皮	-10.2776
虎	-10.2776
Tsu	-10.2776
▁soon	-10.2776
▁told	-10.2785
江戸時代の	-10.2786
▁via	-10.2793
の僧	-10.2798
南北朝時代	-10.2799
斉	-10.2799
▁know	-10.2803
▁upper	-10.2804
家に	-10.2809
扇	-10.281
▁entrance	-10.281
と同じ	-10.2813
続け	-10.2821
美術	-10.2822
以前	-10.2824
▁taste	-10.2827
▁Toba	-10.2827
▁foundation	-10.2829
▁cloth	-10.283
▁Three	-10.2832
批判	-10.2833
▁twenty	-10.2833
Momoyama	-10.2833
▁model	-10.2845
掛	-10.2848
律	-10.285
処	-10.2851
摩	-10.2857
▁empress	-10.2857
▁Dan	-10.2857
▁bar	-10.2858
▁Hachiman	-10.2858
過	-10.2858
固	-10.286
▁anti	-10.2864
忌	-10.2868
以外の	-10.2872
▁bring	-10.2876
▁Cloistered	-10.288
▁Hokkaido	-10.288
らない	-10.288
するなど	-10.2881
▁Tumulus	-10.2891
▁Sha	-10.2895
▁sei	-10.2897
▁across	-10.2903
▁avoid	-10.2903
▁appearance	-10.2904
に出	-10.2904
隣	-10.2914
末期	-10.2914
▁politics	-10.2915
とり	-10.2918
押	-10.2924
写	-10.2925
zukuri	-10.293
▁call	-10.2932
▁Jusanmi	-10.2938
方に	-10.294
公園	-10.2944
▁report	-10.295
▁either	-10.295
▁worn	-10.295
▁existence	-10.295
長崎	-10.2951
うち	-10.2952
をもって	-10.2953
結び	-10.2953
▁dispatched	-10.2958
西園寺	-10.2961
普通	-10.2963
▁game	-10.2968
銀行	-10.2968
会社	-10.2968
文明	-10.2969
part	-10.2983
▁Cha	-10.2984
▁peace	-10.2984
▁Party	-10.2986
壇	-10.2996
▁Roku	-10.2998
▁Tan	-10.2998
▁manner	-10.2999
設	-10.2999
次の	-10.3004
ume	-10.3007
▁best	-10.3008
▁District	-10.3008
▁supposed	-10.3008
構造	-10.3009
▁secret	-10.3009
浄土	-10.3011
SHIMA	-10.3013
▁figure	-10.3016
代の	-10.3017
▁stayed	-10.3018
▁card	-10.3021
▁meat	-10.303
すなわち	-10.3032
すべて	-10.3032
ライ	-10.3034
kyoku	-10.3035
街	-10.3038
のか	-10.3042
▁true	-10.3044
ps	-10.3044
ability	-10.3044
まず	-10.3052
顔	-10.3055
fic	-10.3058
tto	-10.3062
▁yu	-10.3063
▁天正	-10.3063
不明	-10.3063
▁2008	-10.3066
▁Treasure	-10.3067
▁entire	-10.3067
規模	-10.3067
抜	-10.3069
▁hair	-10.3072
名が	-10.3072
▁Courts	-10.3074
釈	-10.3078
天武天皇	-10.3079
攻撃	-10.3082
側の	-10.3083
▁Ban	-10.3084
銘	-10.3091
▁turn	-10.31
の死後	-10.3107
模	-10.3108
▁mon	-10.3109
▁succeed	-10.3109
▁Shun	-10.3109
▁southern	-10.3115
禁止	-10.3115
▁sign	-10.3121
▁help	-10.3122
▁Shinsengumi	-10.3126
▁green	-10.3127
provincial	-10.3132
条約	-10.3133
息子	-10.3135
れて	-10.3136
に伴い	-10.3139
後世	-10.3144
kki	-10.3144
ect	-10.3149
pped	-10.3149
益	-10.3149
▁Park	-10.3151
享保	-10.3152
九条	-10.3153
if	-10.3161
干	-10.3161
他に	-10.3161
▁Daijo	-10.3165
▁ob	-10.3168
▁–	-10.3168
▁tale	-10.3169
▁Yoshino	-10.3171
複	-10.3172
古墳	-10.3173
露	-10.3174
許され	-10.3174
▁lawful	-10.3176
ill	-10.3176
大阪府	-10.3176
▁em	-10.3177
東西	-10.3184
浄	-10.3184
亭	-10.3186
▁treasure	-10.3194
はじめ	-10.3195
桐	-10.3198
gaki	-10.3202
nabe	-10.3202
▁reported	-10.3204
念仏	-10.3208
戒	-10.3209
▁senior	-10.321
頂	-10.321
重要な	-10.321
bara	-10.3211
▁existing	-10.322
非常に	-10.3222
伝統	-10.3223
永禄	-10.3224
ティ	-10.323
浮	-10.3234
申	-10.3237
wing	-10.3238
lf	-10.324
とその	-10.3242
▁regular	-10.3244
活躍	-10.3251
の地	-10.3252
地区	-10.3254
低	-10.3258
洛	-10.3262
▁20,	-10.3263
▁Nai	-10.3267
Governor	-10.3267
征夷大将軍	-10.327
逆	-10.3273
▁diary	-10.3273
経営	-10.3274
日には	-10.3277
nder	-10.3279
学生	-10.328
▁police	-10.3282
▁cannot	-10.3284
官位	-10.3286
学部	-10.3296
貨	-10.3298
▁principle	-10.3307
期の	-10.3309
▁posthumous	-10.3311
▁Gate	-10.3317
▁K	-10.3317
子が	-10.3319
▁wish	-10.3321
▁gl	-10.3323
平家	-10.3324
▁Yoshimitsu	-10.3325
▁kill	-10.3327
行事	-10.3329
脇	-10.3331
▁island	-10.3334
染	-10.3334
特別	-10.3336
大路	-10.3337
項	-10.3338
▁equal	-10.3342
するために	-10.3342
名の	-10.3343
いている	-10.3343
地の	-10.3344
count	-10.3346
四条	-10.3347
▁defeat	-10.335
刺	-10.3355
▁sacred	-10.3356
行われる	-10.3357
種類	-10.3363
▁seal	-10.3364
傷	-10.3367
争	-10.3367
に就任	-10.3368
たり	-10.337
なし	-10.3371
倒	-10.3374
ング	-10.3375
three	-10.3379
沼	-10.3379
つき	-10.3384
内大臣	-10.3385
のお	-10.3392
但	-10.3392
▁demand	-10.3392
件	-10.3393
まだ	-10.3395
RO	-10.3396
▁bound	-10.3403
求め	-10.3403
珠	-10.3404
sato	-10.3405
であること	-10.3406
chin	-10.3408
ベ	-10.3414
kaido	-10.3414
BA	-10.3415
oc	-10.3416
▁Azuchi	-10.3416
▁protect	-10.3421
ize	-10.3421
▁novel	-10.343
▁transfer	-10.343
ことがある	-10.3431
規	-10.3436
執	-10.3437
ranking	-10.3437
冷	-10.344
▁Michinaga	-10.3443
境内	-10.3447
ell	-10.3448
GAWA	-10.3449
▁remain	-10.345
▁facilities	-10.3453
▁TAKA	-10.3454
▁5,	-10.3454
▁ritual	-10.3454
を受ける	-10.3455
再建	-10.3455
熊野	-10.3455
▁15,	-10.3458
一方で	-10.3458
餅	-10.3465
犬	-10.3465
の第	-10.3472
帰国	-10.3474
▁ordinary	-10.3475
欠	-10.3477
担当	-10.3479
▁opposed	-10.348
▁scholar	-10.348
可能性	-10.3485
▁fan	-10.3485
▁Ming	-10.3485
のちに	-10.3488
澄	-10.3489
▁version	-10.349
▁management	-10.3491
伝説	-10.3499
mizu	-10.3503
Nihon	-10.3505
▁小	-10.3512
shoku	-10.3513
星	-10.3515
導入	-10.3516
▁platform	-10.3517
▁suicide	-10.3517
Chi	-10.3518
▁Article	-10.3521
止	-10.3522
城を	-10.3523
▁attached	-10.3529
Na	-10.353
▁Ex	-10.3531
人を	-10.3532
▁techniques	-10.3534
▁mu	-10.3535
丹	-10.3535
▁religion	-10.3539
▁Qing	-10.354
▁leaves	-10.3542
▁N	-10.3542
▁Kumano	-10.3543
戻	-10.3544
のひとつ	-10.3548
▁ku	-10.3548
▁Municipal	-10.3552
▁ceremonies	-10.3552
▁renamed	-10.3552
特急	-10.3553
▁engaged	-10.3554
zuki	-10.3559
めて	-10.3562
還	-10.3566
▁soba	-10.3567
適	-10.3574
ery	-10.3575
ものを	-10.3576
自分	-10.3578
期間	-10.3579
旗本	-10.3581
▁soup	-10.3586
▁action	-10.3588
▁Express	-10.3589
▁respect	-10.3599
疑	-10.3601
煮	-10.3602
▁shows	-10.3603
Mo	-10.3605
▁King	-10.3608
▁increase	-10.3613
▁household	-10.3615
▁Minami	-10.3617
もと	-10.3618
▁participated	-10.3619
No	-10.3619
ける	-10.3623
陰	-10.3626
系の	-10.3626
▁lady	-10.3628
一般に	-10.3628
の中心	-10.3629
▁nine	-10.3637
▁cause	-10.3639
by	-10.364
権大納言	-10.3641
▁warrior	-10.3642
一門	-10.3644
▁ken	-10.3649
豆	-10.365
油	-10.3652
筋	-10.3652
▁25,	-10.3654
▁eighth	-10.3654
▁met	-10.366
暗殺	-10.3664
▁done	-10.3664
の間で	-10.3664
の地位	-10.3669
名称	-10.3673
ft	-10.3673
▁belonging	-10.3678
いずれも	-10.3678
食べ	-10.3679
落ち	-10.3681
▁昭和	-10.3683
場合は	-10.3687
作成	-10.3689
製造	-10.3692
観世	-10.3698
出身	-10.3698
▁your	-10.3699
ties	-10.37
院の	-10.3701
閉	-10.3702
真言宗	-10.3702
tari	-10.3702
▁Hiei	-10.3706
out	-10.3706
▁Raku	-10.3709
▁sides	-10.371
如元	-10.3711
▁25	-10.3713
糸	-10.3714
▁calligraphy	-10.3714
に昇叙	-10.3714
挙兵	-10.3716
▁kimono	-10.3717
▁concerning	-10.3718
最高	-10.3721
軍の	-10.3723
ima	-10.3725
tch	-10.3727
ちょう	-10.3727
確	-10.3728
Azuma	-10.3729
活	-10.373
▁picture	-10.3731
蓮	-10.3733
aries	-10.3734
▁round	-10.3736
local	-10.3736
▁equivalent	-10.3736
製作	-10.3749
▁behind	-10.3752
ok	-10.3756
X	-10.376
戦後	-10.3762
かな	-10.3764
床	-10.3765
▁project	-10.3766
ip	-10.3769
弟子	-10.3773
▁All	-10.3774
▁busho	-10.3775
つけ	-10.3779
仮	-10.3788
鑑	-10.379
百済	-10.3791
開始	-10.38
ari	-10.3802
▁floor	-10.3803
滅亡	-10.3803
▁offices	-10.3805
▁organized	-10.3805
▁Nagasaki	-10.3806
の中に	-10.381
▁match	-10.3815
like	-10.3816
▁Shotoku	-10.3825
内部	-10.3827
▁MA	-10.3828
ヲ	-10.3829
敗	-10.3838
haku	-10.384
静	-10.3841
moku	-10.3847
区別	-10.385
予	-10.385
人は	-10.3854
貿易	-10.3854
込み	-10.3856
芸術	-10.3856
▁clothes	-10.3859
▁advanced	-10.3864
ap	-10.3866
▁mis	-10.3867
比叡山	-10.3867
tribute	-10.3867
庭園	-10.3869
dokoro	-10.387
つつ	-10.3871
▁27,	-10.3874
よし	-10.3875
▁Kobe	-10.3876
▁Haku	-10.3877
帖	-10.388
▁actors	-10.3882
上に	-10.3882
long	-10.3886
源義	-10.3888
かわ	-10.3888
であると	-10.3889
▁tri	-10.389
ise	-10.3895
GI	-10.3897
kushi	-10.3898
大社	-10.3899
の弟	-10.39
圧	-10.3903
▁L	-10.3903
合わせ	-10.3904
かみ	-10.3905
servant	-10.3906
相当	-10.3908
作り	-10.3911
▁cre	-10.3921
▁Hyo	-10.3927
弟の	-10.3929
J	-10.393
食べる	-10.3931
▁Shirakawa	-10.3932
▁collected	-10.3933
▁Gun	-10.3934
頃に	-10.3938
においても	-10.3939
▁depending	-10.394
丁	-10.3941
which	-10.3943
▁hundred	-10.3944
魂	-10.3944
教え	-10.3945
▁committed	-10.3945
Wa	-10.3946
と呼ばれた	-10.3947
河内	-10.3947
▁air	-10.3951
▁belief	-10.3957
近く	-10.3958
▁vice	-10.3959
らは	-10.3969
▁Bridge	-10.397
▁Shinano	-10.397
一人	-10.3971
▁Shiki	-10.3972
宮中	-10.3976
麻	-10.3983
▁Oi	-10.3989
sue	-10.3989
▁regarding	-10.3994
征	-10.3996
▁Harima	-10.3996
▁buried	-10.3996
財政	-10.3999
Mu	-10.3999
▁managed	-10.4001
▁move	-10.4008
Provisional	-10.4009
前後	-10.401
たる	-10.4012
枝	-10.4022
▁Gu	-10.4024
本堂	-10.4029
修行	-10.4029
替	-10.403
違	-10.4034
▁La	-10.4038
旅	-10.404
▁NAGA	-10.4044
子孫	-10.4045
east	-10.4047
などがある	-10.4048
▁disciples	-10.4053
KURA	-10.4053
▁turned	-10.4054
福知山	-10.4056
ショ	-10.4057
事を	-10.4068
眼	-10.4074
▁concept	-10.4074
▁song	-10.4077
西日本	-10.4078
西洋	-10.4079
わり	-10.4083
協会	-10.4086
国道	-10.4086
穴	-10.4087
らい	-10.4087
もしくは	-10.4088
にとって	-10.4095
YO	-10.41
akira	-10.4102
ップ	-10.4102
▁これらの	-10.4102
に入り	-10.4103
soku	-10.4107
太政官	-10.4113
強く	-10.4115
追い	-10.4118
重要	-10.4121
▁yield	-10.4127
▁dispute	-10.4127
▁grandson	-10.4128
なお	-10.4129
▁mountains	-10.413
▁23,	-10.4132
ころ	-10.4135
▁Yoshinobu	-10.4136
弱	-10.414
▁UESUGI	-10.414
ペ	-10.414
かつ	-10.414
▁Toyotomi	-10.414
物を	-10.4143
▁Taisho	-10.4146
▁Mikawa	-10.4146
▁letters	-10.4148
捕	-10.4153
懐	-10.4153
金剛	-10.4154
に参加	-10.4155
▁establish	-10.4155
▁non	-10.4155
単位	-10.4155
近年	-10.4156
軍は	-10.4156
▁kinds	-10.4157
毎	-10.4162
▁blood	-10.4166
▁grandfather	-10.4166
指揮	-10.4166
ことも	-10.4172
▁track	-10.4174
大将	-10.4176
▁longer	-10.418
勤	-10.4182
息	-10.4183
shichi	-10.4184
great	-10.4186
▁piece	-10.4186
読み	-10.4188
▁28,	-10.419
ever	-10.419
▁companies	-10.4193
▁coin	-10.4193
▁Hokke	-10.4196
▁sons	-10.4196
後醍醐天皇	-10.4196
無い	-10.4197
▁24	-10.4197
と同	-10.4199
錦	-10.4206
▁Order	-10.4206
台湾	-10.4207
賀茂	-10.4207
井上	-10.4208
▁opening	-10.4215
▁earth	-10.4216
▁scale	-10.4218
▁duties	-10.4219
▁Shijo	-10.422
物の	-10.4223
間に	-10.423
▁necessary	-10.4232
▁Saka	-10.4233
の御	-10.4235
▁free	-10.4237
代々	-10.4238
ppo	-10.4238
姉	-10.4245
是	-10.4246
参照	-10.4247
拡大	-10.425
Ni	-10.4251
minister	-10.4253
開催	-10.4253
ても	-10.4254
bai	-10.4258
新選組	-10.4259
▁scroll	-10.4259
ative	-10.4262
呼び	-10.4265
▁pattern	-10.427
普及	-10.4273
▁previous	-10.4276
▁Tenmu	-10.428
していった	-10.4281
ていない	-10.4282
と言われる	-10.4282
▁cross	-10.4283
八幡	-10.4284
hachi	-10.4286
▁iron	-10.4287
参加	-10.4287
▁nature	-10.4287
再興	-10.4288
財	-10.4293
長男	-10.4294
▁holding	-10.4295
▁princess	-10.4296
▁decision	-10.4299
▁source	-10.4312
討ち	-10.4313
裁	-10.4314
tate	-10.4314
▁comes	-10.4315
済	-10.4322
伏	-10.4323
▁stand	-10.4323
狭	-10.4325
きょう	-10.4326
作られた	-10.4329
▁ITO	-10.4341
を行い	-10.4342
▁bowl	-10.4347
の変	-10.4348
ced	-10.4348
▁7,	-10.4349
包	-10.4352
位置	-10.4355
子供	-10.4356
▁chi	-10.4358
立像	-10.4367
lay	-10.4368
出来	-10.4368
don	-10.4369
』、『	-10.437
かく	-10.4371
▁Rei	-10.4372
飲	-10.4375
碑	-10.438
訓	-10.438
快速	-10.438
▁Awa	-10.438
▁personal	-10.438
▁mean	-10.4382
したり	-10.4383
▁describes	-10.4385
しき	-10.4385
Tai	-10.4385
国民	-10.4387
ともに	-10.4388
z	-10.439
現存	-10.439
▁derived	-10.4393
▁need	-10.4394
徒歩	-10.4394
▁翌	-10.4394
考	-10.4396
▁Atsu	-10.4401
▁Shinkansen	-10.4407
▁movie	-10.4407
▁wall	-10.4412
▁Hyogo	-10.4412
▁Yoshimasa	-10.4415
▁Za	-10.4415
賜	-10.4416
court	-10.4416
kka	-10.4418
").	-10.4419
▁morning	-10.442
ます	-10.4423
全体	-10.443
られて	-10.4431
当初は	-10.4432
▁元	-10.4432
がない	-10.4434
▁Taiwan	-10.4435
pon	-10.4435
実施	-10.4437
▁emperors	-10.4439
官職	-10.4443
ときに	-10.4443
が行われた	-10.4447
解釈	-10.4448
ピ	-10.445
kazu	-10.445
事実	-10.4453
突	-10.4454
▁現在	-10.4454
▁21	-10.4455
▁cap	-10.4456
▁offered	-10.446
▁dedicated	-10.4461
▁eventually	-10.4461
似	-10.447
Ju	-10.4475
十郎	-10.4477
▁子に	-10.4485
西郷	-10.4486
踏	-10.4488
の父	-10.4492
でもある	-10.4493
天皇が	-10.4494
頃から	-10.4495
最初	-10.4495
流の	-10.4501
舟	-10.4502
基本	-10.4504
島津	-10.4507
ものであった	-10.4511
伊達	-10.4511
中国の	-10.4512
known	-10.4512
▁showed	-10.4514
明らか	-10.4516
▁basis	-10.4516
発表	-10.4516
側に	-10.4518
▁teachings	-10.4523
子内親王	-10.4527
▁produce	-10.453
ched	-10.4533
るが	-10.4534
なども	-10.4537
場合もある	-10.4539
▁Code	-10.454
▁officially	-10.454
▁United	-10.4543
平安	-10.4548
▁Seki	-10.4552
▁expression	-10.4554
▁accompanied	-10.4557
▁question	-10.4557
▁ship	-10.4557
崩御	-10.4558
保護	-10.456
者を	-10.4562
▁29,	-10.4563
祭神	-10.4567
維	-10.4569
▁illness	-10.4571
▁price	-10.4571
▁Under	-10.4573
担	-10.4582
▁Collection	-10.4582
▁space	-10.4588
▁connection	-10.4588
▁24,	-10.459
才	-10.4596
tane	-10.4597
寝	-10.4598
▁salt	-10.4601
せい	-10.4605
力を	-10.4605
▁cover	-10.4607
動き	-10.4611
をはじめ	-10.4611
▁Middle	-10.4613
▁quality	-10.4613
展	-10.4614
▁Yoshinaka	-10.4616
▁mind	-10.4616
▁Wakashu	-10.4616
享	-10.4618
qua	-10.4625
軒	-10.4625
初め	-10.4627
▁grand	-10.4627
▁Pure	-10.463
▁crest	-10.463
離	-10.4638
磨	-10.4639
toyo	-10.4643
わか	-10.4645
歴	-10.4646
Master	-10.465
を集め	-10.4651
▁forest	-10.4652
統治	-10.4657
kichi	-10.4657
の際	-10.4662
の意	-10.4665
滋賀県	-10.4667
誤	-10.4667
▁screen	-10.4667
▁Echigo	-10.4667
▁summer	-10.4667
nojo	-10.4672
用の	-10.4678
▁10,	-10.4679
の次男	-10.4681
形態	-10.4682
存在した	-10.4682
施行	-10.4685
ugh	-10.4691
▁Kurodo	-10.4693
融	-10.4695
ber	-10.4698
▁arrived	-10.47
▁Gan	-10.4704
外国	-10.4704
▁heaven	-10.4709
Minamoto	-10.4711
神社の	-10.4713
▁im	-10.4719
name	-10.4722
を参照	-10.4722
豪族	-10.4723
▁grade	-10.4725
▁faction	-10.4727
文政	-10.4733
密教	-10.4736
北海道	-10.4737
▁Kaku	-10.4737
最初の	-10.4737
▁TAKEDA	-10.4737
▁Ai	-10.474
作者	-10.474
▁Katsura	-10.4743
価	-10.4749
▁dress	-10.4751
▁funeral	-10.4751
摂政	-10.4752
▁civil	-10.4765
▁Yoshiaki	-10.4765
遺跡	-10.4767
も多い	-10.4773
▁Kugyo	-10.4775
匠	-10.4779
kuri	-10.4781
様式	-10.4786
使われる	-10.4786
▁MATSU	-10.479
氏が	-10.4792
削	-10.4793
絹	-10.4793
▁adviser	-10.4793
▁economic	-10.4793
▁Ishi	-10.4797
更に	-10.4799
▁meant	-10.48
自体	-10.4801
ept	-10.4802
▁accept	-10.4804
婚	-10.4806
灯	-10.4807
▁barbarians	-10.4807
影響	-10.4809
tur	-10.4811
ごろ	-10.4812
名前	-10.4814
▁mark	-10.4815
mari	-10.4819
肥	-10.4821
停車	-10.4821
化した	-10.4822
kimi	-10.4829
三好	-10.4831
▁maintain	-10.4832
ible	-10.4832
少ない	-10.4833
中納言	-10.4833
天平	-10.4835
奇	-10.4835
授	-10.4835
買	-10.4835
伝え	-10.4837
▁4,	-10.4838
▁restored	-10.4841
▁friend	-10.4848
一揆	-10.4849
新幹線	-10.4849
竜	-10.4849
治承	-10.4855
arm	-10.4855
GO	-10.4856
▁reading	-10.4856
城主	-10.486
航	-10.4862
▁marriage	-10.4863
▁festivals	-10.4867
sumi	-10.4873
KO	-10.4873
Do	-10.4873
象	-10.4874
宣下	-10.4874
奈良時代	-10.4876
指導	-10.4878
▁Mito	-10.4881
▁Ichijo	-10.4883
▁13,	-10.4886
▁contains	-10.4886
zaki	-10.4886
▁bad	-10.4886
造り	-10.4893
あたり	-10.4894
▁bean	-10.4899
山田	-10.4903
工事	-10.4904
▁association	-10.4906
▁bridge	-10.4906
▁drum	-10.4906
▁ruin	-10.491
途中	-10.4912
▁reasons	-10.4912
▁Book	-10.4921
▁Kagami	-10.4921
▁appointment	-10.4921
▁8,	-10.4922
関連	-10.4923
速	-10.4928
Kojiki	-10.4928
威	-10.4933
▁king	-10.4933
慈	-10.4934
▁Yamashina	-10.4934
▁future	-10.4936
▁influenced	-10.4939
▁Hana	-10.494
▁door	-10.4943
▁store	-10.4945
依	-10.4946
▁fighting	-10.4946
▁Udaijin	-10.4951
多数	-10.4953
hy	-10.4954
▁pe	-10.4954
300	-10.4955
描	-10.4956
易	-10.4958
されたもの	-10.4958
ically	-10.4962
▁crop	-10.4964
以降は	-10.4967
日本酒	-10.4967
AN	-10.4973
▁慶長	-10.4975
町の	-10.4978
art	-10.4981
▁しかしながら	-10.4984
pping	-10.4985
既に	-10.4989
!	-10.4991
臨	-10.4992
まま	-10.4992
会議	-10.4997
統一	-10.4999
▁km	-10.5005
shun	-10.5005
▁Sakai	-10.5006
役割	-10.501
創	-10.5011
議員	-10.5017
quarter	-10.5018
太政大臣	-10.502
▁language	-10.502
▁22,	-10.5021
▁Tama	-10.5026
▁working	-10.5031
恩	-10.5034
▁department	-10.5036
▁starting	-10.5044
察	-10.5048
▁Summary	-10.5049
▁beautiful	-10.5049
ザ	-10.5049
her	-10.505
記事	-10.5051
くら	-10.5054
されること	-10.5062
記載	-10.5062
▁lands	-10.5064
▁Around	-10.5068
▁farmers	-10.5069
清盛	-10.5072
子を	-10.5074
ここで	-10.5074
hama	-10.5076
▁pay	-10.5076
ike	-10.5077
▁uncle	-10.5078
偽	-10.5078
芳	-10.5078
▁Nagoya	-10.5078
▁Sea	-10.5078
▁Di	-10.5078
▁classified	-10.5079
▁specific	-10.5084
▁Kofuku	-10.5091
国内	-10.5091
graph	-10.5091
腹	-10.5091
▁examples	-10.5093
▁followers	-10.5094
▁allow	-10.5095
隠居	-10.5096
NE	-10.5103
▁favor	-10.5104
▁Hei	-10.5105
▁maternal	-10.5107
▁Junior	-10.5111
葛	-10.5117
けた	-10.5118
博	-10.5119
▁Kuro	-10.5119
かれ	-10.5122
▁Izumi	-10.5124
▁surface	-10.5124
造営	-10.5124
あら	-10.5124
小説	-10.5126
熊	-10.5126
施	-10.5129
を持ち	-10.5131
▁let	-10.5135
嫁	-10.5136
を通じて	-10.5136
▁そこで	-10.5137
▁Aizu	-10.5139
就任	-10.5141
ton	-10.5142
ium	-10.5142
▁join	-10.5147
程	-10.5147
験	-10.5148
▁Constitution	-10.515
の死	-10.5162
預	-10.5165
▁division	-10.5165
▁intention	-10.5165
由	-10.5173
推	-10.5175
▁Sekigahara	-10.518
▁paid	-10.5181
lor	-10.5181
ひと	-10.5182
vice	-10.5182
nushi	-10.5189
文久	-10.519
蝦夷	-10.5194
交渉	-10.5195
tsubo	-10.5201
応永	-10.5201
被	-10.5202
des	-10.5203
cor	-10.5206
道具	-10.5206
繁	-10.5208
遇	-10.5208
じて	-10.5212
▁Nu	-10.5213
教授	-10.5215
序	-10.5223
惟	-10.5223
恋	-10.5223
恒	-10.5223
chan	-10.5225
相続	-10.5225
藤原氏	-10.5226
Shu	-10.5227
と呼ばれ	-10.5232
彼ら	-10.5232
kofun	-10.5238
博士	-10.5239
▁frequently	-10.5241
ked	-10.5241
となっていた	-10.5242
のほか	-10.5247
▁30,	-10.5252
▁guardian	-10.5254
を示す	-10.5254
にあり	-10.5255
xi	-10.5255
▁50	-10.5255
二人	-10.5261
▁assistant	-10.5261
出版	-10.5262
意味	-10.5262
▁stated	-10.5264
を得	-10.5264
一つ	-10.5265
國	-10.5267
醤油	-10.5268
を務めた	-10.5268
▁Iyo	-10.5269
祭り	-10.5269
▁11,	-10.527
吹	-10.5274
gn	-10.5274
成立した	-10.5275
挙	-10.5279
独自の	-10.5282
興福寺	-10.5283
▁Sadaijin	-10.5285
▁col	-10.5288
行動	-10.5289
▁restoration	-10.5297
temple	-10.5298
維持	-10.5298
のための	-10.53
べき	-10.5306
▁belong	-10.5307
▁list	-10.5309
▁Izu	-10.531
▁teacher	-10.5311
朱	-10.5312
▁Hitachi	-10.5313
を引き	-10.5315
記念	-10.5317
▁connected	-10.5319
それら	-10.5319
▁Tane	-10.5326
殺害	-10.5327
わけ	-10.5329
▁ingredients	-10.5333
cle	-10.5334
濃	-10.5337
砂	-10.5341
卵	-10.5341
鳴	-10.5341
庶民	-10.5342
▁hands	-10.5346
Sen	-10.5349
敗れ	-10.535
pr	-10.5351
有名	-10.5351
弾	-10.5352
棟	-10.5356
篠	-10.5356
急行	-10.536
▁step	-10.5366
袖	-10.5367
▁Shikibu	-10.5368
▁Enryaku	-10.5372
小野	-10.5375
家老	-10.5376
late	-10.5377
主張	-10.5379
供養	-10.538
▁Fudo	-10.5381
代藩主	-10.5387
▁camp	-10.5388
帝国	-10.5393
▁institution	-10.5396
▁difference	-10.5397
幽	-10.5401
追放	-10.5402
▁Otomo	-10.5403
劇	-10.5405
に仕え	-10.5405
Yoshi	-10.5407
▁Kaga	-10.5412
▁particularly	-10.5416
▁program	-10.5417
の間に	-10.5418
▁6,	-10.5419
▁9,	-10.542
侍従	-10.5422
大和国	-10.5425
pur	-10.5428
▁Sue	-10.5429
クラ	-10.543
賛	-10.5431
▁enthronement	-10.5431
▁market	-10.5432
性格	-10.5437
振	-10.5437
om	-10.5439
▁learning	-10.5442
幹	-10.5446
戦い	-10.5451
▁Shoshi	-10.5453
占	-10.5454
生き	-10.5455
kage	-10.5458
ator	-10.546
族	-10.5462
▁captured	-10.5466
大阪市	-10.5468
功績	-10.5476
現在は	-10.548
后	-10.5482
尾張	-10.5486
▁mausoleum	-10.5491
▁studies	-10.5491
▁quite	-10.5491
hana	-10.5498
▁Hachi	-10.5501
鐘	-10.5506
であろう	-10.5506
▁account	-10.5506
行為	-10.5508
▁ill	-10.551
▁whom	-10.551
izing	-10.5512
いん	-10.5513
▁Day	-10.5514
▁brewing	-10.5515
▁troop	-10.5518
▁influential	-10.5521
▁submitted	-10.5522
逃れ	-10.5527
官人	-10.5529
飾	-10.5529
▁painter	-10.5532
刃	-10.5536
ことに	-10.5539
なっている	-10.554
採用	-10.5542
地下	-10.5543
杉	-10.5543
▁mass	-10.5547
▁Bakufu	-10.5552
▁folk	-10.5552
石川	-10.5556
▁sushi	-10.5556
▁26,	-10.5557
▁shops	-10.5557
ていった	-10.5561
under	-10.5563
笛	-10.5567
左右	-10.5567
高等学校	-10.5567
美術館	-10.5569
▁ABE	-10.5577
淀	-10.5578
おう	-10.5579
湖	-10.5582
夕	-10.5582
▁applied	-10.5582
▁Oe	-10.5585
▁Fa	-10.5587
藩士	-10.5587
述	-10.5588
期に	-10.5589
rv	-10.5592
なくなった	-10.5596
名古屋	-10.5597
▁excellent	-10.5597
▁surname	-10.5597
]).	-10.5601
などは	-10.5604
山科	-10.5604
▁theater	-10.5605
▁Min	-10.5606
▁Ume	-10.5609
滝	-10.5612
ite	-10.562
▁wo	-10.5621
門院	-10.5623
豊臣	-10.5623
▁Nichi	-10.5625
穂	-10.5627
るため	-10.5629
▁planned	-10.5629
▁string	-10.5634
嵯峨	-10.5637
多い	-10.5637
費	-10.5639
消	-10.5642
土佐	-10.5643
▁Due	-10.5645
IN	-10.5646
寛文	-10.5653
▁kanji	-10.5654
ard	-10.5656
しゅ	-10.5657
の上に	-10.5657
の孫	-10.5657
澤	-10.5658
▁OTOMO	-10.5658
命令	-10.5661
▁controlled	-10.5661
家督を	-10.5663
毎年	-10.5663
背景	-10.5666
▁Agency	-10.5674
祐	-10.5674
▁tower	-10.5676
▁eaten	-10.5677
分類	-10.5678
▁Sakyo	-10.5679
人気	-10.5679
相手	-10.5682
争い	-10.5683
われた	-10.5685
▁shown	-10.5687
▁punishment	-10.5689
に由来する	-10.5691
皇室	-10.5692
近鉄	-10.5695
▁1871	-10.5697
▁Europe	-10.57
lies	-10.5701
とも呼ばれる	-10.5703
壺	-10.5704
甘	-10.5704
▁Of	-10.5704
oku	-10.5706
に近い	-10.5706
▁drawn	-10.5708
▁table	-10.5708
峰	-10.5711
活躍した	-10.5713
▁care	-10.5716
の祖	-10.5716
蒸	-10.572
上杉	-10.5721
▁bell	-10.5722
▁height	-10.5724
とする説	-10.5729
延暦寺	-10.5731
の歴史	-10.5731
出す	-10.5732
を得て	-10.5734
夢	-10.5735
よい	-10.5739
▁job	-10.5741
茶道	-10.5745
記されている	-10.5749
▁condition	-10.5749
▁Shingen	-10.5754
早く	-10.5756
pic	-10.5758
▁2004	-10.5759
▁rain	-10.5761
▁currency	-10.5766
▁something	-10.5766
▁Thus	-10.5767
▁これを	-10.5767
▁villages	-10.5778
▁becomes	-10.5779
▁invited	-10.5782
ably	-10.5788
本来	-10.5788
▁以後	-10.5788
spect	-10.5792
自分の	-10.5797
ぜ	-10.5797
山崎	-10.5803
▁perform	-10.5813
詔	-10.5813
流れ	-10.5813
▁People	-10.5813
▁variety	-10.5813
峠	-10.5813
▁president	-10.5813
源頼朝	-10.5816
▁Koto	-10.5817
▁merchants	-10.5818
▁miya	-10.582
冊	-10.5828
発生	-10.583
masu	-10.583
▁receive	-10.5831
▁collect	-10.5835
武蔵	-10.5837
新政府	-10.5838
滅	-10.584
▁17,	-10.584
▁ruled	-10.5843
珍	-10.5843
辻	-10.5844
揚げ	-10.5844
のことである	-10.5854
池田	-10.5854
▁Tenno	-10.5857
日本で	-10.5858
討伐	-10.586
署	-10.586
▁problem	-10.586
権中納言	-10.5861
▁box	-10.5862
▁additional	-10.5863
who	-10.5864
せた	-10.5866
sign	-10.5868
▁closed	-10.5871
▁reach	-10.5874
oshi	-10.5875
惣	-10.5875
uma	-10.5875
車両	-10.5877
▁Hiroshima	-10.588
らしい	-10.5882
見える	-10.5883
即	-10.5889
の記述	-10.589
▁stick	-10.5891
追討	-10.5891
加賀	-10.5894
の二	-10.5895
しなかった	-10.5902
勇	-10.5906
傾向	-10.5907
後白河	-10.5909
▁Chief	-10.5909
▁cooking	-10.5914
Yu	-10.5915
吉良	-10.5916
▁represent	-10.5916
るようになった	-10.5917
▁NAKA	-10.592
▁items	-10.5921
boku	-10.5922
▁costume	-10.5923
義仲	-10.5923
拠点	-10.5923
所有	-10.5926
の戦いで	-10.5934
ヨ	-10.5938
▁egg	-10.5938
▁increasing	-10.5938
従四位下	-10.5939
▁22	-10.5941
これらの	-10.5947
▁1869	-10.5949
▁Peninsula	-10.5954
taisha	-10.5956
写本	-10.5957
束	-10.5958
▁achievements	-10.5961
▁battles	-10.5962
juro	-10.5965
出雲	-10.5968
mar	-10.5969
しばしば	-10.597
第三	-10.597
▁Corporation	-10.597
▁industry	-10.597
▁yet	-10.597
を開始	-10.5974
ここ	-10.5975
つまり	-10.5976
waka	-10.5982
lk	-10.5985
岳	-10.5985
direct	-10.5987
etsu	-10.5988
安政	-10.599
畠山	-10.599
▁prepared	-10.5991
プロ	-10.5993
oto	-10.5995
出土	-10.6
かた	-10.6001
大伴	-10.6001
センター	-10.6001
原因	-10.6002
畿内	-10.6003
同じく	-10.6005
▁covered	-10.6005
scale	-10.6015
▁audience	-10.6017
生涯	-10.6017
▁That	-10.6018
▁eating	-10.6021
▁sur	-10.6025
戦死	-10.6026
商人	-10.6032
瓦	-10.6033
▁autumn	-10.6033
▁その他	-10.6034
つか	-10.6045
などから	-10.6045
1000	-10.6046
▁doctor	-10.6049
前期	-10.6053
十三	-10.6053
時は	-10.6053
▁Si	-10.6062
合併	-10.6067
▁provide	-10.6068
たま	-10.6077
流行	-10.608
権を	-10.6081
の一種	-10.6081
▁rules	-10.6082
▁tai	-10.6085
源頼	-10.6086
ごと	-10.6087
が行われ	-10.609
qu	-10.6093
▁歴史	-10.6094
改正	-10.6095
乗り	-10.6096
▁Research	-10.6097
■	-10.6097
出て	-10.6097
インド	-10.6099
植	-10.6101
開設	-10.6102
確認	-10.6102
▁Oka	-10.6104
避	-10.6109
臨時	-10.6113
ography	-10.6113
▁Science	-10.6113
の妻	-10.6113
▁listed	-10.6115
TANI	-10.6123
単に	-10.6123
母は	-10.6126
▁disease	-10.6129
▁edict	-10.6129
▁Doshisha	-10.6129
▁correspond	-10.6129
らと	-10.6129
の家臣	-10.6132
official	-10.6133
▁den	-10.6135
▁installed	-10.6135
▁Mura	-10.6137
tern	-10.6139
▁Most	-10.6142
召	-10.6145
▁star	-10.6145
▁Kagoshima	-10.6145
平安時代末期	-10.6146
勢力を	-10.6146
マン	-10.6146
たか	-10.6148
宅	-10.6148
▁Kasuga	-10.6152
400	-10.6152
four	-10.6153
▁Ura	-10.6153
war	-10.6157
地頭	-10.6161
▁severe	-10.6163
まさ	-10.6165
対象	-10.6167
んでいた	-10.6171
▁consists	-10.6173
mine	-10.6177
▁background	-10.6178
それに	-10.6178
▁million	-10.6179
▁tumulus	-10.618
毛利	-10.6185
新しい	-10.6186
学問	-10.6187
狩	-10.619
返し	-10.619
囲	-10.6191
▁practical	-10.6193
▁distance	-10.6193
寿司	-10.6196
使者	-10.6196
南北	-10.6199
移転	-10.6203
▁exists	-10.6204
んでいる	-10.6206
酸	-10.621
に当たる	-10.621
農民	-10.6216
内で	-10.622
併	-10.6224
▁KONOE	-10.6226
▁thirty	-10.6226
兵庫県	-10.6226
登録	-10.6226
▁transportation	-10.6228
江戸時代に	-10.6228
ped	-10.6234
昭	-10.6234
ita	-10.6234
▁declined	-10.6237
彩	-10.6242
▁English	-10.6242
▁Dr	-10.6242
ていたが	-10.6242
ょ	-10.625
▁Ima	-10.6255
▁lecture	-10.6258
日本に	-10.6258
▁Daishi	-10.6262
天台宗	-10.6264
安置	-10.6264
すでに	-10.6264
つな	-10.6266
神話	-10.6269
盤	-10.6273
晩年	-10.6274
符	-10.6275
▁plot	-10.6275
▁wind	-10.6281
▁runs	-10.6285
詠	-10.629
▁Institute	-10.6291
編成	-10.6293
管領	-10.6293
の場合	-10.6299
醍醐	-10.6299
▁break	-10.6302
▁父	-10.6305
▁responsible	-10.6307
圏	-10.6307
もっとも	-10.6308
焼失	-10.6308
薩摩藩	-10.6317
▁Cabinet	-10.6324
刊行	-10.6327
系図	-10.633
男性	-10.6331
>	-10.6332
▁separated	-10.6333
救	-10.634
アメリカ	-10.634
▁ninth	-10.6341
▁Rikyu	-10.6343
もう	-10.6345
出された	-10.6348
それまで	-10.635
するもの	-10.6353
思い	-10.6353
南部	-10.6354
われる	-10.6355
課	-10.6356
也	-10.6356
▁target	-10.6356
▁weak	-10.6359
太夫	-10.6373
▁academic	-10.6373
Shoku	-10.6375
男子	-10.6376
の意味	-10.6376
自らの	-10.6376
かれた	-10.6381
ming	-10.6383
▁flowers	-10.6385
EN	-10.6387
箱	-10.6388
mic	-10.6389
ものと	-10.6391
▁kin	-10.6392
▁classical	-10.6392
▁painted	-10.6394
▁mostly	-10.6397
nal	-10.6398
▁restaurants	-10.64
▁plant	-10.6405
悲	-10.6406
▁conduct	-10.6406
▁sentence	-10.6409
途	-10.641
同時に	-10.6413
▁wearing	-10.6415
公開	-10.6422
迎え	-10.6422
を率いて	-10.6422
▁thin	-10.6423
▁Uta	-10.6427
▁follow	-10.6428
▁このとき	-10.6429
tsuke	-10.6432
rate	-10.6432
逆に	-10.6435
monin	-10.6436
岐	-10.6437
託	-10.6439
▁portrait	-10.6439
▁articles	-10.644
育	-10.6443
kado	-10.6444
▁Biwa	-10.6445
を用いる	-10.6446
former	-10.6449
北朝	-10.6449
▁circumstances	-10.645
▁Meanwhile	-10.6456
▁associated	-10.6456
慶応	-10.6456
やす	-10.6456
用いられた	-10.6457
▁temporary	-10.6458
ryaku	-10.6458
古い	-10.6458
▁1.	-10.646
▁miko	-10.6464
▁flower	-10.6465
明治維新	-10.6471
琴	-10.6472
薨去	-10.6472
▁Mountain	-10.6472
▁Fukuoka	-10.6473
▁Koya	-10.6474
Sei	-10.6477
元和	-10.6478
を含む	-10.6479
▁Mar	-10.6483
京極	-10.6484
▁Mochi	-10.6484
▁Heike	-10.6486
▁ところが	-10.6488
▁SA	-10.6488
▁Kii	-10.6488
ヘ	-10.6489
情報	-10.6492
▁believe	-10.6493
UE	-10.6494
▁70	-10.6497
内裏	-10.6497
▁2003	-10.6498
上野	-10.6498
続く	-10.6498
汁	-10.65
結成	-10.6501
逸	-10.6504
袋	-10.6505
▁temporarily	-10.6505
▁territorial	-10.6505
菓子	-10.6507
atory	-10.6508
▁measures	-10.6511
新羅	-10.6513
日野	-10.6514
bra	-10.6515
YU	-10.6518
ター	-10.6521
迫	-10.6522
磐	-10.6522
▁enough	-10.6522
▁artist	-10.6524
別名	-10.6525
伊賀	-10.6525
清水	-10.6528
和泉	-10.6529
jaku	-10.653
"),	-10.6533
▁deputy	-10.6534
Ji	-10.6535
▁taught	-10.6539
▁giving	-10.6539
衰退	-10.6539
一般的に	-10.6539
▁removed	-10.6544
▁Po	-10.6548
続いて	-10.655
▁extended	-10.6551
映	-10.6553
架	-10.6556
暴	-10.6556
kken	-10.6558
時代に	-10.656
rge	-10.6563
meter	-10.6563
天皇は	-10.6564
▁Hai	-10.6566
▁matter	-10.6567
▁passengers	-10.6568
美濃	-10.6569
kiri	-10.6569
女子	-10.6571
攻	-10.6574
saburo	-10.6574
ユ	-10.6589
▁cabinet	-10.6589
祇園	-10.6589
▁permission	-10.659
文献	-10.6591
Taka	-10.6591
宮津	-10.6593
文禄	-10.6595
訴	-10.6597
蔵人	-10.6598
▁Uchi	-10.6601
という意味	-10.6603
▁basic	-10.6605
▁attempt	-10.6606
洗	-10.6606
否定	-10.6607
▁magistrate	-10.6613
この頃	-10.6614
組み	-10.6614
▁titles	-10.6615
hand	-10.6615
from	-10.6622
堅	-10.6623
▁Empire	-10.6623
▁advance	-10.6627
リア	-10.6635
▁someone	-10.6635
元服	-10.6637
period	-10.6639
浴	-10.664
use	-10.6642
協	-10.6642
▁remaining	-10.6645
▁songs	-10.6647
▁Mizu	-10.6648
春日	-10.6648
すれば	-10.6654
▁Chiku	-10.6654
▁現在の	-10.6656
▁木造	-10.6658
▁greatly	-10.6659
向け	-10.6662
狂言	-10.6674
▁60	-10.6681
▁indicates	-10.6682
もん	-10.6687
阪	-10.6688
▁survey	-10.6691
▁Volume	-10.6691
ということ	-10.6691
▁winter	-10.6692
getsu	-10.6696
的には	-10.6696
貞観	-10.6697
家督	-10.6697
▁cat	-10.6705
Chamberlain	-10.6708
▁Karasuma	-10.6708
烏丸	-10.6708
方は	-10.6711
長さ	-10.6716
行う	-10.6721
鴨	-10.6721
ゲ	-10.6725
▁facility	-10.6725
▁simply	-10.6725
個人	-10.6727
▁knowledge	-10.6729
ak	-10.6732
▁moon	-10.6732
▁Shira	-10.6735
▁Pre	-10.6736
▁takes	-10.6737
▁TACHIBANA	-10.6742
▁simple	-10.6742
▁KUJO	-10.6742
Kin	-10.6743
▁spot	-10.6743
▁28	-10.6752
主な	-10.6754
制作	-10.676
▁sugar	-10.676
▁goods	-10.676
high	-10.6761
▁plays	-10.6765
薩摩	-10.6765
神戸	-10.6765
▁Kara	-10.6767
ZU	-10.6768
事実上	-10.6769
集団	-10.6771
知行	-10.6771
ロー	-10.6778
後も	-10.6778
叙	-10.6783
した後	-10.6785
国人	-10.6787
丈	-10.679
wake	-10.6791
▁Kongo	-10.6792
伝えられ	-10.6792
了	-10.6792
廻	-10.6793
▁dried	-10.6793
▁actively	-10.6793
起こ	-10.6795
飛鳥	-10.6795
といわれている	-10.6795
juku	-10.6796
そのもの	-10.6797
所蔵	-10.6798
にかけての	-10.6799
▁range	-10.6799
tsuji	-10.6801
▁inner	-10.6803
ual	-10.6806
▁2000	-10.6809
▁advantage	-10.681
▁Tatsu	-10.6812
仮名	-10.6813
uri	-10.6815
mber	-10.6816
させて	-10.6821
▁currently	-10.6825
しゃ	-10.6826
ただし	-10.683
するという	-10.6831
彼女	-10.6832
あげ	-10.6833
外交	-10.6834
といい	-10.6837
▁Yoshitaka	-10.6838
に入ると	-10.684
TE	-10.684
工業	-10.6841
▁更に	-10.6841
京都駅	-10.6842
答	-10.6842
洲	-10.6845
網	-10.6845
▁Ashi	-10.6846
知られている	-10.6847
唯一	-10.6848
▁consisting	-10.6854
rk	-10.6856
の時代	-10.6857
標	-10.6857
其	-10.6862
浄土真宗	-10.6862
▁Hosokawa	-10.6862
▁compared	-10.6862
▁contributed	-10.6862
▁Kukai	-10.6864
百姓	-10.6865
することが	-10.6866
致	-10.687
旗	-10.6873
最後の	-10.6873
▁こうした	-10.6877
ICOCA	-10.6879
イギリス	-10.6879
価値	-10.688
始まり	-10.688
ラン	-10.688
営業	-10.688
FU	-10.6881
製の	-10.6882
▁shall	-10.6884
釈迦	-10.6897
辛	-10.6897
陶	-10.6897
▁faith	-10.6897
▁conditions	-10.6898
bed	-10.6898
条件	-10.6898
▁makes	-10.6901
NI	-10.6903
一方	-10.6904
を兼任	-10.6907
▁Dewa	-10.6907
込まれ	-10.6907
に属し	-10.6908
るように	-10.691
ロシア	-10.6912
▁measure	-10.6913
▁guest	-10.6914
▁saw	-10.6915
着用	-10.6919
地名	-10.6922
▁govern	-10.6925
▁Maki	-10.6925
伝来	-10.6925
▁symbol	-10.6927
nic	-10.6927
投	-10.6928
▁Kura	-10.6929
奈	-10.693
災	-10.693
▁staff	-10.6931
紹介	-10.6932
600	-10.6933
者として	-10.6934
▁Yoshitomo	-10.6936
扱い	-10.6937
▁heard	-10.694
shitsu	-10.695
▁rock	-10.695
▁Kizu	-10.695
なもの	-10.695
▁changes	-10.6951
kake	-10.6951
東国	-10.6959
団体	-10.6959
屋根	-10.696
▁fun	-10.6963
サン	-10.6963
▁Dazai	-10.6964
▁failed	-10.6966
楼	-10.6966
復活	-10.6967
許可	-10.6967
▁super	-10.6968
流通	-10.6968
設定	-10.697
▁suffered	-10.697
までに	-10.6971
も多く	-10.6972
Kyo	-10.6972
▁gathered	-10.6973
▁eat	-10.6973
BO	-10.6974
っており	-10.6975
UCHI	-10.6976
iri	-10.698
したのは	-10.698
されていない	-10.698
Osaka	-10.698
▁offering	-10.6982
ou	-10.6985
高さ	-10.6986
▁maintained	-10.6987
督	-10.6988
していない	-10.6994
▁26	-10.6995
▁leave	-10.6997
▁ranking	-10.6997
▁Kanmu	-10.6997
▁scholars	-10.6998
垂	-10.7001
▁nobility	-10.7001
▁typical	-10.7001
復興	-10.7003
▁lives	-10.7004
▁19,	-10.7004
▁bank	-10.7005
▁patterns	-10.7005
▁determined	-10.7005
▁Ti	-10.7009
覧	-10.7019
大久保	-10.7019
▁depict	-10.702
電車	-10.7021
美濃国	-10.7024
始めた	-10.7025
Buddhist	-10.7027
type	-10.7027
丹後	-10.7028
かなり	-10.7029
▁Shaka	-10.703
展開	-10.703
使い	-10.7031
することを	-10.7032
牧	-10.7032
▁consider	-10.7033
蕎麦	-10.7036
券	-10.7036
漁	-10.7036
▁Kingdom	-10.7036
に際して	-10.7041
▁これが	-10.7042
▁exiled	-10.7044
様子	-10.7045
▁Tokaido	-10.7045
寛政	-10.7046
天守	-10.7047
せる	-10.7048
漆	-10.7054
▁Today	-10.7057
機能	-10.7058
▁Hankyu	-10.7058
▁Gion	-10.7064
高倉	-10.7066
▁Oshi	-10.7066
taku	-10.7068
▁accordance	-10.7072
▁leaving	-10.7072
と称し	-10.7072
込んだ	-10.7072
ようである	-10.7073
事が	-10.7074
▁continue	-10.7078
▁descriptions	-10.7084
▁Ben	-10.7089
▁am	-10.7091
東海道	-10.7092
導	-10.7097
んじ	-10.71
作った	-10.71
▁films	-10.7102
正二位	-10.7107
昔	-10.7107
▁find	-10.7108
長い	-10.7116
いだ	-10.7118
goto	-10.7118
斬	-10.7118
▁Iga	-10.712
boshi	-10.7122
身を	-10.7123
報告	-10.7123
曜	-10.7125
▁refused	-10.7125
▁revision	-10.7125
▁Suruga	-10.7125
▁thick	-10.7125
式部	-10.7127
nokami	-10.7128
▁fixed	-10.713
が一般的	-10.713
四郎	-10.7131
にいた	-10.7136
▁23	-10.7136
一部の	-10.7139
▁strongly	-10.714
▁cherry	-10.7143
▁build	-10.7144
▁Gojo	-10.7149
now	-10.7149
▁shop	-10.7153
west	-10.7153
▁Per	-10.7153
止め	-10.7153
▁Ukyo	-10.7154
有名な	-10.7158
nishi	-10.716
▁narrow	-10.716
▁Clan	-10.716
要求	-10.7161
▁peasants	-10.7161
kke	-10.7161
▁fil	-10.7161
初期の	-10.7162
▁aim	-10.7164
▁subsequently	-10.7166
ュ	-10.7167
全く	-10.717
るもの	-10.7171
New	-10.7172
▁TAKE	-10.7178
犯	-10.7178
▁double	-10.7178
▁annual	-10.7178
▁Kumamoto	-10.7179
遷	-10.7185
老中	-10.7186
▁Tsuku	-10.7187
だと	-10.7192
各地に	-10.7193
が設置され	-10.7201
tress	-10.7202
▁final	-10.7204
▁God	-10.7211
▁Yakushi	-10.7213
▁Ja	-10.7213
▁burial	-10.7214
▁attention	-10.7214
▁South	-10.7215
▁self	-10.7215
尊氏	-10.7217
行われている	-10.722
▁talk	-10.722
▁happened	-10.722
卒業	-10.7221
いった	-10.7224
?)	-10.7224
方向	-10.7227
shrine	-10.7228
麺	-10.7232
▁headquarters	-10.7232
▁disc	-10.7235
空海	-10.7239
亀山	-10.724
▁rapid	-10.724
始め	-10.7244
▁Wakasa	-10.725
▁monument	-10.725
永正	-10.7252
彼の	-10.7261
同盟	-10.7262
いち	-10.7262
▁sects	-10.7265
楽器	-10.7266
儒	-10.7266
▁ancestor	-10.7266
績	-10.7267
▁concubine	-10.7268
▁Train	-10.7268
貨幣	-10.7268
mate	-10.727
iki	-10.727
協力	-10.7274
院政	-10.728
▁Uesugi	-10.7283
の研究	-10.7295
▁wanted	-10.7297
千代	-10.7297
▁spirits	-10.7298
宗派	-10.7299
国衙	-10.7299
競	-10.73
lower	-10.7302
幣	-10.7302
栗	-10.7304
フランス	-10.7304
▁HIRA	-10.7304
dama	-10.7305
そば	-10.7308
していたが	-10.731
次男	-10.7313
審	-10.7322
丘	-10.7322
▁gokenin	-10.7322
▁kabuki	-10.7323
▁suppress	-10.7323
▁nu	-10.7323
専門	-10.7326
▁weight	-10.7331
Cho	-10.7335
でき	-10.7336
ying	-10.7338
▁complete	-10.7338
▁martial	-10.734
tangible	-10.734
pre	-10.7345
を得た	-10.7347
▁80	-10.7357
▁Before	-10.7358
▁SOGA	-10.7358
ディ	-10.7358
領地	-10.7359
住宅	-10.7359
▁Miyazu	-10.7368
kuma	-10.7369
対応	-10.7373
翁	-10.7376
生没年不詳	-10.7376
▁easily	-10.7376
これが	-10.7377
童	-10.7377
▁incorporated	-10.7378
j	-10.7379
比較的	-10.7383
▁Seiwa	-10.7383
を見せ	-10.7383
▁efforts	-10.7383
わずか	-10.7389
▁develop	-10.7393
かる	-10.7393
▁rituals	-10.7393
▁circle	-10.7395
▁international	-10.7395
▁attain	-10.7398
▁Daijokan	-10.74
tting	-10.7405
didn	-10.7405
越前	-10.7409
▁Faculty	-10.7413
▁discovered	-10.7413
▁border	-10.7413
▁treatment	-10.7413
plain	-10.7413
▁Naidaijin	-10.7413
▁boy	-10.7418
世襲	-10.7419
同一	-10.7419
▁castles	-10.742
に至る	-10.7426
曼荼羅	-10.7431
大内	-10.7431
光明	-10.7434
現存する	-10.7434
▁これにより	-10.7439
▁Shiba	-10.744
▁evil	-10.744
▁soul	-10.7444
kusa	-10.7447
そこ	-10.7448
鼓	-10.7448
Maizuru	-10.7449
篤	-10.7449
▁regulations	-10.7449
▁performing	-10.745
実際には	-10.7454
▁park	-10.7455
実際に	-10.7456
▁governors	-10.7459
本線	-10.746
▁Daimyo	-10.746
は不明	-10.7463
zushi	-10.7464
rice	-10.7465
▁Konoe	-10.7465
▁promotion	-10.7468
吾妻鏡	-10.7468
▁stopped	-10.7469
sawa	-10.747
奥州	-10.747
浅野	-10.747
▁Uma	-10.7472
交流	-10.7472
を立て	-10.7472
が必要	-10.7476
譜	-10.7477
任命	-10.748
混	-10.7482
稲荷	-10.7486
▁prefecture	-10.7487
深い	-10.7488
▁executed	-10.7488
▁extremely	-10.7489
▁Arts	-10.7489
支持	-10.7489
▁decline	-10.7491
▁Kokushi	-10.7494
▁Aka	-10.7499
無く	-10.7499
軍を	-10.7504
NHK	-10.7505
▁alcohol	-10.7505
▁boat	-10.7505
テレビ	-10.7505
創設	-10.7505
▁MIYOSHI	-10.7505
伊豆	-10.7506
▁talent	-10.7506
bound	-10.7509
▁rose	-10.7518
たという	-10.752
▁negotiation	-10.7523
▁urban	-10.7523
若狭	-10.7524
▁concurrently	-10.7524
▁uprising	-10.7525
新たに	-10.7526
▁towards	-10.7527
離れ	-10.7531
table	-10.7533
準	-10.7534
いう	-10.7537
cious	-10.7538
嫌	-10.7541
zaburo	-10.7541
騒動	-10.7542
没後	-10.7543
▁contents	-10.7543
京都に	-10.7544
▁Oku	-10.7544
▁cake	-10.7548
▁prohibited	-10.755
▁日本の	-10.7555
山名	-10.7557
ient	-10.7558
謡	-10.756
▁defined	-10.756
▁ICHIKAWA	-10.756
坐像	-10.7562
押し	-10.7563
まい	-10.7564
使用する	-10.7565
▁Five	-10.7567
▁Yoko	-10.7568
▁Warring	-10.7569
▁relatively	-10.7569
指摘	-10.7576
砲	-10.7577
民間	-10.7578
ye	-10.7578
詮	-10.7578
▁概要	-10.7579
▁kokushi	-10.758
har	-10.7581
wo	-10.7584
▁pronounced	-10.7584
▁Nyo	-10.7584
替え	-10.7584
▁successive	-10.7588
▁requested	-10.7591
top	-10.7592
hood	-10.7594
bugyo	-10.7596
und	-10.7596
YOSHI	-10.7597
平安時代中期	-10.7598
運営	-10.7599
に師事	-10.7599
辞任	-10.76
継ぎ	-10.7601
work	-10.7603
落語	-10.7604
▁student	-10.7608
▁Jizo	-10.761
などと	-10.7612
▁Gaku	-10.7613
▁plate	-10.7615
kari	-10.7616
tail	-10.7616
▁claim	-10.7617
方針	-10.7617
差し	-10.7618
▁cities	-10.7618
嵐山	-10.7623
韓国	-10.7624
したものである	-10.7625
の母	-10.7628
に帰	-10.763
▁Sun	-10.7632
概	-10.7634
▁crown	-10.7636
▁Date	-10.7637
▁relocated	-10.7637
後継者	-10.7637
tetsu	-10.7638
する事	-10.7639
Chu	-10.7641
sode	-10.7647
▁Assistant	-10.7647
歴代	-10.7648
pass	-10.765
▁rights	-10.7651
紅	-10.7652
陀	-10.7653
▁stipend	-10.7653
を認め	-10.7653
側近	-10.7655
絵画	-10.7656
三浦	-10.7656
▁tell	-10.7658
▁Miko	-10.7664
Bu	-10.7665
知られ	-10.7666
下り	-10.7666
高野山	-10.7666
▁Hime	-10.7667
大宮	-10.767
大石	-10.7671
膳	-10.7672
▁Records	-10.7672
▁permitted	-10.7672
兄の	-10.7674
▁suddenly	-10.7675
いない	-10.7676
atsu	-10.7677
▁paste	-10.7679
ついた	-10.7681
▁cooked	-10.7681
▁playing	-10.7682
説明	-10.7683
用いる	-10.7685
▁Ono	-10.7685
▁ships	-10.7685
加えて	-10.7689
▁peerage	-10.7691
▁settled	-10.7691
▁prior	-10.7691
▁literary	-10.7691
復帰	-10.7692
Kai	-10.7692
北部	-10.7693
▁regard	-10.7694
▁Kinki	-10.7695
ious	-10.7696
さか	-10.7698
発達	-10.7699
six	-10.7699
陸奥	-10.7708
そして	-10.771
▁effective	-10.7711
高く	-10.7712
▁fled	-10.7713
法皇	-10.7716
▁roll	-10.7717
matsuri	-10.7717
▁months	-10.772
けん	-10.7723
eight	-10.7724
妖怪	-10.7728
従一位	-10.7728
▁arranged	-10.7728
合い	-10.7728
延喜	-10.773
▁arms	-10.7731
事務	-10.7739
行った	-10.7739
],	-10.7741
▁Saigo	-10.7742
上京	-10.7747
▁Jushiinoge	-10.7747
▁SAIONJI	-10.7747
▁protection	-10.7751
cked	-10.7754
▁Kinai	-10.7757
ごとに	-10.776
▁chant	-10.7765
▁commit	-10.7767
権威	-10.7768
没した	-10.777
Co	-10.7772
事情	-10.7774
▁Hashi	-10.778
求	-10.7784
▁domestic	-10.7785
雷	-10.7785
配置	-10.7787
▁offer	-10.7789
処分	-10.779
▁taxes	-10.7798
が見られる	-10.7798
▁fe	-10.78
MOTO	-10.7802
天神	-10.7802
辰	-10.7804
として生まれる	-10.7804
フィ	-10.7805
の名称	-10.7806
▁chu	-10.7806
▁Okayama	-10.7807
富士	-10.7807
▁cru	-10.7808
伊藤	-10.7809
説もある	-10.781
▁retained	-10.7811
由来	-10.7812
る事	-10.7816
▁Nihonshoki	-10.7821
影	-10.7823
寒	-10.7823
▁significant	-10.7823
▁adult	-10.7823
▁think	-10.7828
朝倉	-10.7829
tea	-10.783
Chinese	-10.7831
位階	-10.7835
▁expressed	-10.7836
少なく	-10.7837
本山	-10.7839
謀	-10.784
▁adopt	-10.784
緑	-10.7842
古くから	-10.7842
▁edition	-10.7843
備え	-10.7848
立つ	-10.785
▁owner	-10.7851
uring	-10.7854
▁Uda	-10.7855
たら	-10.7855
死後	-10.7856
Kokin	-10.7861
▁cost	-10.7861
過ぎ	-10.7863
それが	-10.7866
大蔵	-10.7866
▁carry	-10.7869
written	-10.787
▁Okimi	-10.7872
au	-10.7872
▁obtained	-10.7875
安定	-10.7878
良い	-10.788
峯	-10.788
謝	-10.788
▁mixed	-10.788
混乱	-10.7881
▁announced	-10.7882
IC	-10.7886
▁lacquer	-10.7888
kkan	-10.7889
traditional	-10.7889
▁cast	-10.7891
に入る	-10.7891
和田	-10.7894
時には	-10.7895
▁die	-10.7896
▁performer	-10.7897
▁Zu	-10.7898
ラー	-10.7899
▁ascetic	-10.7899
▁pen	-10.7899
周囲	-10.79
colored	-10.79
reki	-10.79
ological	-10.7901
▁Masamune	-10.7903
hyo	-10.7907
にまで	-10.7912
rated	-10.7912
▁ink	-10.7913
▁relative	-10.7914
を継いだ	-10.7916
充	-10.7918
▁anecdote	-10.7919
▁doctrine	-10.7919
▁flour	-10.7919
合わせて	-10.7919
▁matters	-10.7929
▁この時	-10.7933
▁Rin	-10.7936
宰	-10.7938
▁architecture	-10.7938
ことになった	-10.7939
ぶり	-10.7942
長官	-10.7943
レー	-10.7943
▁attract	-10.7946
▁professional	-10.7949
▁pictures	-10.795
▁provisional	-10.7954
朝廷の	-10.7955
降伏	-10.7958
保元	-10.7959
▁disappeared	-10.7963
▁achieved	-10.7963
まとめ	-10.7966
cies	-10.7969
▁pointed	-10.797
直後	-10.7973
▁Kurama	-10.7974
▁aspect	-10.7974
hata	-10.7976
すべき	-10.7976
葺	-10.7976
▁Subway	-10.7976
▁weapon	-10.7976
謀反	-10.7977
海外	-10.7979
▁laws	-10.7979
▁enshrine	-10.7983
寄せ	-10.7984
河原	-10.7984
▁Christian	-10.7984
漬け	-10.7986
を務め	-10.7988
二十	-10.799
▁buses	-10.799
▁regional	-10.7993
ek	-10.7995
渋	-10.7996
▁consort	-10.7996
▁medicine	-10.7996
繰り	-10.7996
死去した	-10.8005
勝利	-10.8006
Grand	-10.8008
provisional	-10.8008
摂津国	-10.8008
▁attend	-10.8013
からも	-10.8014
人口	-10.8014
輩	-10.8015
菩提	-10.8015
▁Foreign	-10.8015
氷	-10.8015
警察	-10.8015
鞍馬	-10.8015
放送	-10.8016
自害	-10.8017
こそ	-10.8019
五条	-10.8032
class	-10.8034
曽	-10.8034
▁Modern	-10.8034
▁Poetry	-10.8034
▁stock	-10.8034
つけた	-10.8036
叔父	-10.8037
元々	-10.8046
▁Ru	-10.8047
当時は	-10.8047
送り	-10.8047
Comp	-10.8047
上人	-10.8052
▁Sakone	-10.8054
カー	-10.8056
日条	-10.8056
▁Kimi	-10.8062
▁cold	-10.8062
▁Shinran	-10.8062
▁1872	-10.8064
▁poor	-10.8064
原則	-10.8068
討	-10.8068
演じ	-10.807
▁portion	-10.8071
婦	-10.8073
▁lack	-10.8073
▁kara	-10.8075
上方	-10.8076
▁Lake	-10.8079
出た	-10.8079
知られる	-10.8079
▁`	-10.8085
▁Kiri	-10.809
づけ	-10.809
▁Ito	-10.8092
小笠原	-10.8093
誓	-10.8093
奴	-10.8093
fried	-10.8094
法華経	-10.8095
に入って	-10.8098
と称する	-10.8098
山口	-10.8101
▁Tadayoshi	-10.8105
▁※	-10.8105
bito	-10.8106
用語	-10.8109
パー	-10.8109
が存在する	-10.811
▁university	-10.8112
▁entry	-10.8113
華族	-10.8113
▁raw	-10.8113
逸話	-10.8114
形状	-10.8114
祭祀	-10.8115
双	-10.8118
平安時代の	-10.8122
呼	-10.8123
田中	-10.8127
Yama	-10.8129
▁Asia	-10.8132
皇太后	-10.8132
准	-10.8132
▁cm	-10.8133
▁Masakado	-10.8134
深く	-10.8135
源氏の	-10.8135
将門	-10.814
▁access	-10.8141
▁mat	-10.8144
hold	-10.8144
RU	-10.8148
山城国	-10.8148
▁hit	-10.8148
探	-10.8151
甥	-10.8152
▁Shonii	-10.8152
▁copy	-10.8152
侵攻	-10.8152
太鼓	-10.8153
▁assist	-10.8154
buki	-10.8154
▁treasures	-10.8155
幼	-10.8157
レン	-10.8159
▁rare	-10.8165
山本	-10.8166
蘭	-10.8166
▁teaching	-10.8167
新田	-10.8169
大江	-10.8169
腰	-10.8171
▁descended	-10.8172
▁conquer	-10.8172
▁judge	-10.8172
zaka	-10.8174
▁criticized	-10.8174
もともと	-10.8175
両者	-10.8177
zawa	-10.8178
▁stay	-10.8178
▁clothing	-10.8179
付き	-10.8179
▁strengthen	-10.818
▁feeling	-10.8183
KE	-10.8184
▁Daigaku	-10.8185
SAKA	-10.8186
効	-10.8189
蘇	-10.8191
誠	-10.8191
▁replaced	-10.8191
▁enjoy	-10.8194
増加	-10.8195
書院	-10.8197
人形	-10.82
きた	-10.8201
従二位	-10.8211
戦国大名	-10.8211
”	-10.8211
▁community	-10.8211
▁earlier	-10.8211
▁evidence	-10.8211
▁invasion	-10.8211
▁normal	-10.8211
▁Shimotsuke	-10.8211
演奏	-10.8212
▁Okura	-10.8215
▁operations	-10.8217
▁tan	-10.8217
しょ	-10.8218
▁Sumi	-10.8225
▁pot	-10.8226
るなど	-10.8229
▁identified	-10.8231
▁Ishikawa	-10.8232
▁Hino	-10.8235
催	-10.8237
宝暦	-10.8237
An	-10.8242
阿弥	-10.8249
携	-10.8249
▁Mine	-10.825
▁recover	-10.8251
▁treaty	-10.8251
▁reward	-10.8252
▁Ameno	-10.8254
▁damage	-10.8257
自身	-10.8263
ーン	-10.8268
▁resulted	-10.8269
▁SHIBA	-10.8269
ZAWA	-10.8271
sis	-10.8271
▁Diet	-10.8272
戦闘	-10.8272
まつ	-10.8274
▁drink	-10.8274
東寺	-10.8276
巻き	-10.8277
代わりに	-10.8279
ung	-10.8279
してきた	-10.8281
らせ	-10.8283
普	-10.8285
に入った	-10.8288
のまま	-10.8289
健	-10.8289
宴	-10.829
塾	-10.829
▁beauty	-10.829
▁Originally	-10.8291
根拠	-10.8291
意識	-10.8293
を指し	-10.8293
▁Oshu	-10.8294
率いる	-10.8294
法律	-10.8296
▁Kasa	-10.8301
信頼	-10.8303
▁designed	-10.8308
縄	-10.831
縮	-10.831
▁proposed	-10.8311
▁split	-10.8312
年度	-10.8313
バー	-10.8314
▁instrument	-10.8321
称号	-10.8323
▁practiced	-10.8326
げん	-10.8329
▁introduction	-10.833
▁North	-10.833
▁copper	-10.8331
▁このような	-10.8331
▁internal	-10.8331
▁root	-10.8332
▁walls	-10.8332
▁Tohoku	-10.8333
のことを	-10.8335
総称	-10.8336
▁Ako	-10.8337
わない	-10.8338
Nara	-10.8341
黒田	-10.8342
認	-10.8344
▁sand	-10.8344
▁Tr	-10.8344
lated	-10.8348
▁Dowager	-10.835
▁messenger	-10.835
逃げ	-10.8351
不詳	-10.8351
▁nor	-10.8351
行われ	-10.8354
▁flavor	-10.8355
寿永	-10.8355
▁serious	-10.8361
政治的	-10.8361
▁consisted	-10.8362
Ro	-10.8365
小学校	-10.8365
▁defense	-10.8367
▁prefectures	-10.8369
織田信	-10.837
鍋	-10.837
▁blossom	-10.837
▁phrase	-10.837
継いだ	-10.8374
▁Kozuke	-10.8376
絵巻	-10.8379
されるようになった	-10.838
▁characteristics	-10.8386
との間に	-10.8387
▁differ	-10.8389
キリスト教	-10.8391
閏	-10.8391
▁anniversary	-10.8391
うどん	-10.8393
文庫	-10.8395
▁labor	-10.84
冷泉	-10.8403
言い	-10.8406
▁powder	-10.8411
=>	-10.8411
登場する	-10.8412
tar	-10.8414
▁1997	-10.8418
▁Ran	-10.8421
又	-10.8426
ものであり	-10.8427
train	-10.8428
▁Confucianism	-10.8429
耳	-10.8431
▁decree	-10.8431
▁petition	-10.8431
一切	-10.8431
朝鮮半島	-10.8431
▁reference	-10.8432
▁Kichi	-10.8432
It	-10.8433
pat	-10.8434
大師	-10.8434
▁Nagaoka	-10.8436
shogun	-10.8438
▁sumo	-10.8445
っていない	-10.8446
▁Miyoshi	-10.8446
▁don	-10.8447
伝わる	-10.845
敦	-10.845
Director	-10.8451
▁contrast	-10.8451
▁TV	-10.8451
▁Ara	-10.8453
地位	-10.8453
Collection	-10.8454
▁recommended	-10.8455
▁Hu	-10.8457
現在でも	-10.8458
すぐ	-10.8458
▁metal	-10.8461
▁seemed	-10.8463
地元	-10.8466
に仕えた	-10.8469
筒	-10.847
リン	-10.847
▁Library	-10.8471
junior	-10.8472
▁biological	-10.8472
たため	-10.8472
存続	-10.8472
▁approved	-10.8474
▁gain	-10.8476
出る	-10.8476
▁grandchild	-10.8477
るために	-10.8481
▁bath	-10.8482
▁koto	-10.8483
入れる	-10.8485
▁このように	-10.8488
であったため	-10.8489
切腹	-10.8493
理解	-10.8499
▁chujo	-10.8501
▁drawing	-10.8502
じる	-10.8505
▁fare	-10.8507
緒	-10.8507
閑	-10.8512
括	-10.8512
▁Two	-10.8512
▁Rokuhara	-10.8514
ny	-10.8516
信長の	-10.8517
女御	-10.8518
所属	-10.852
▁Kiku	-10.8524
▁ball	-10.8529
まれた	-10.8532
▁nephew	-10.8533
銃	-10.8533
Manyoshu	-10.8533
を設け	-10.8535
▁pick	-10.8535
▁Vi	-10.8536
▁Mitsunari	-10.8537
▁villa	-10.8543
▁contained	-10.8544
▁daibu	-10.8544
庫	-10.8545
▁codes	-10.8545
いずれ	-10.8551
▁repair	-10.8553
浅井	-10.8555
氏族	-10.8556
決め	-10.8559
仕え	-10.8563
先に	-10.8563
▁roles	-10.8569
淡	-10.8573
▁Properties	-10.8574
博物館	-10.8574
▁merged	-10.8574
平安京	-10.8576
執権	-10.8579
verse	-10.858
▁Tsuru	-10.8582
延長	-10.8583
こうした	-10.8586
田辺	-10.8587
申し	-10.8588
tta	-10.8588
との関係	-10.8589
芝	-10.8593
正平	-10.8593
炭	-10.8594
▁burned	-10.8594
▁focus	-10.8594
▁Atago	-10.8594
といえる	-10.8594
▁betto	-10.8595
譲位	-10.8598
▁districts	-10.8603
に属する	-10.8606
JO	-10.8607
の対象	-10.8609
陰陽	-10.8609
▁surrendered	-10.8609
▁forms	-10.8609
cer	-10.8612
赴	-10.8613
笑	-10.8615
傍	-10.8615
各地の	-10.8615
議会	-10.8623
とは別	-10.8625
法華	-10.8626
▁Chiba	-10.8628
▁merchant	-10.8629
▁relatives	-10.8629
柏	-10.8635
▁procedure	-10.8635
▁boiled	-10.8635
▁coast	-10.8635
▁taishogun	-10.8636
some	-10.8636
ritsu	-10.8637
を祀る	-10.8638
見る	-10.864
セン	-10.8641
set	-10.8642
▁subdues	-10.8642
能楽	-10.8644
仏像	-10.8645
延暦	-10.8646
round	-10.865
grant	-10.8654
▁slightly	-10.8656
鋳造	-10.8657
段階	-10.8658
来た	-10.8661
teru	-10.8664
▁provision	-10.8666
韓	-10.8667
cade	-10.8669
▁Nagano	-10.8669
産業	-10.867
▁entering	-10.8671
zuke	-10.8673
bata	-10.8673
▁Seii	-10.8676
附	-10.8676
怪	-10.8676
▁fief	-10.8677
▁Samurai	-10.8677
▁attempted	-10.8677
▁chamber	-10.8677
▁rise	-10.8682
するようになった	-10.8685
拠	-10.8688
▁opinions	-10.8688
kama	-10.8691
は不明である	-10.8692
Han	-10.8693
ric	-10.8694
瑞	-10.8697
▁alliance	-10.8697
▁heavy	-10.8697
lock	-10.8697
▁poets	-10.8698
岩倉	-10.87
▁bugyo	-10.8701
弘仁	-10.8701
一度	-10.8701
金堂	-10.8704
▁escape	-10.8705
しゅう	-10.8706
科学	-10.8707
gram	-10.8709
史跡	-10.871
日本では	-10.871
家系	-10.8711
SAWA	-10.8712
書かれた	-10.8712
駅から	-10.8713
中将	-10.8714
らなかった	-10.8715
恐れ	-10.8716
却	-10.8717
道長	-10.8717
2000	-10.8718
かせ	-10.872
haya	-10.8724
学科	-10.8725
▁Jinshin	-10.8727
▁writer	-10.8727
▁We	-10.8731
ばかり	-10.8732
政務	-10.8732
唱	-10.8734
▁sell	-10.8735
ではなかった	-10.8735
tatsu	-10.8736
▁Koga	-10.8736
▁spa	-10.8737
▁response	-10.8739
▁sleeve	-10.8739
▁SHIMAZU	-10.8739
▁revised	-10.8739
基礎	-10.8739
結婚	-10.874
motsu	-10.8743
▁tracks	-10.8746
▁FUJI	-10.8747
の墓	-10.8748
▁shooting	-10.8748
みられる	-10.8754
乙	-10.876
▁System	-10.876
征伐	-10.876
新たな	-10.876
▁Tomi	-10.8761
▁grounds	-10.8761
MU	-10.8761
▁Soga	-10.8761
▁Series	-10.8763
ruct	-10.8764
シテ	-10.8764
官僚	-10.8766
を設置	-10.8767
経典	-10.877
伯	-10.8771
と考え	-10.8772
重臣	-10.8773
▁1990	-10.8774
▁Major	-10.8775
▁performances	-10.878
てしまった	-10.878
彰	-10.8781
▁episode	-10.8781
袴	-10.8781
乾	-10.8781
▁Navy	-10.8781
my	-10.8784
かね	-10.8786
dani	-10.8789
文章	-10.8792
古来	-10.8793
闘	-10.88
代当主	-10.88
oya	-10.8802
▁Onmyo	-10.8802
▁Sanuki	-10.8803
▁acted	-10.8803
▁ONO	-10.8803
続けた	-10.8807
関ヶ原の戦い	-10.8808
市川	-10.8809
▁stones	-10.8809
以前の	-10.8812
おか	-10.8814
pei	-10.8815
telling	-10.8818
天明	-10.8819
▁Kanze	-10.882
▁comm	-10.8821
秀吉の	-10.8823
嶋	-10.8823
―	-10.8823
▁block	-10.8823
寄進	-10.8829
▁Sung	-10.8829
山寺	-10.8837
朝臣	-10.884
皇帝	-10.8843
▁stands	-10.8844
▁Tori	-10.8844
▁Onin	-10.8846
代表的な	-10.8848
▁cr	-10.8848
実現	-10.885
five	-10.8852
に任じられ	-10.8853
に関しては	-10.886
てしまう	-10.8862
▁inscription	-10.8864
底	-10.8865
▁broad	-10.8865
▁hakase	-10.8865
craft	-10.8865
縁起	-10.8867
▁duty	-10.8867
▁register	-10.8869
古典	-10.8873
▁fine	-10.8879
▁manager	-10.8879
明治政府	-10.8882
に叙せられ	-10.8883
用いられ	-10.8885
尉	-10.8886
云	-10.8886
正三位	-10.8886
▁reflect	-10.8886
天智天皇	-10.8886
損	-10.8886
▁Oama	-10.8886
効果	-10.8886
のではないか	-10.8888
とする説もある	-10.8888
捨て	-10.8888
内親王	-10.8888
▁Rai	-10.8895
▁flow	-10.8899
の存在	-10.8903
▁Hiko	-10.8905
▁depicted	-10.8907
釜	-10.8907
愛宕	-10.8907
▁approach	-10.8907
▁excavated	-10.8907
▁mirror	-10.8907
▁hatamoto	-10.8907
浪	-10.8908
▁nothing	-10.8909
▁Haya	-10.891
要素	-10.891
反乱	-10.891
▁Nakamaro	-10.8911
▁1889	-10.892
▁2002	-10.892
本文	-10.8921
▁cur	-10.8921
▁Kojiki	-10.8923
▁registered	-10.8924
作業	-10.8925
stream	-10.8927
快	-10.8928
欲	-10.8928
虫	-10.8928
畑	-10.8928
弦	-10.8928
▁correct	-10.8928
▁Kameyama	-10.8928
▁grew	-10.8929
▁medical	-10.8929
▁health	-10.8929
▁translation	-10.893
▁released	-10.8932
続いた	-10.8933
堺	-10.8938
▁stores	-10.8943
▁showing	-10.8948
出身の	-10.8949
遂	-10.895
索	-10.895
▁overthrow	-10.895
▁Another	-10.895
▁constable	-10.895
自動車	-10.895
▁heart	-10.8952
▁dry	-10.8953
使われ	-10.8953
room	-10.8955
▁largest	-10.8956
存在する	-10.8957
▁edge	-10.8957
▁create	-10.8959
▁instruments	-10.896
小倉	-10.8968
▁Sagami	-10.8968
文治	-10.8968
▁skill	-10.8968
stone	-10.8969
相撲	-10.8971
長く	-10.8971
▁Spring	-10.8972
支援	-10.8974
この時期	-10.8975
はなく	-10.8978
shita	-10.8979
▁professor	-10.8985
北陸	-10.8986
▁Son	-10.8987
▁Ouchi	-10.8989
国造	-10.899
鯨	-10.8992
吾	-10.8992
▁surrounded	-10.8992
と伝えられる	-10.8993
皇位継承	-10.8993
De	-10.8993
東宮	-10.8993
を果たし	-10.8993
摂関家	-10.8994
補任	-10.8996
予定	-10.8996
嘉永	-10.8997
感じ	-10.901
▁Sendai	-10.9011
ここに	-10.9012
▁content	-10.9012
湾	-10.9013
▁Those	-10.9014
▁YOSHIDA	-10.9014
概念	-10.9014
だけでなく	-10.9015
gawara	-10.9015
▁Akita	-10.9017
▁Kira	-10.9019
▁Tsuna	-10.902
▁YAMANA	-10.9026
総合	-10.9027
new	-10.9033
数は	-10.9033
ヨーロッパ	-10.9035
▁Central	-10.9035
敏	-10.9035
各地で	-10.9035
▁suggest	-10.9038
分離	-10.904
提出	-10.9044
▁bear	-10.9045
やすい	-10.9047
▁verse	-10.9049
であるという	-10.9055
坐	-10.9055
西日本旅客鉄道	-10.9057
▁Though	-10.9057
▁Gotoba	-10.9057
▁rites	-10.9057
▁Jingu	-10.9062
▁Wakayama	-10.9062
▁Shima	-10.9063
tsumi	-10.9063
高野	-10.9064
▁meet	-10.9066
浅	-10.9072
modern	-10.9073
▁platforms	-10.9075
排	-10.9078
微	-10.9078
熟	-10.9078
▁Wooden	-10.9078
▁arrangement	-10.9078
図書館	-10.9078
球	-10.9078
中山	-10.9079
▁Michizane	-10.908
系譜	-10.9082
▁mint	-10.9084
BU	-10.9084
▁Teru	-10.9087
述べ	-10.9087
上記の	-10.9088
建久	-10.9088
棄	-10.91
寧	-10.91
▁enlightenment	-10.91
▁population	-10.91
▁fabric	-10.91
▁Matters	-10.91
kuchi	-10.91
対抗	-10.9101
たとえ	-10.9102
▁Maru	-10.9102
権限	-10.9103
に着	-10.9103
それは	-10.9105
はこれを	-10.9112
Nan	-10.9115
▁goes	-10.9116
▁share	-10.9117
▁meal	-10.9118
難波	-10.9123
援	-10.9128
▁parties	-10.9129
ists	-10.9129
dia	-10.913
▁bl	-10.9136
including	-10.914
折り	-10.914
艦	-10.9142
見られ	-10.9142
▁superior	-10.9143
▁draft	-10.9143
りょう	-10.9143
▁deeply	-10.9143
潮	-10.9143
広島	-10.9144
仲麻呂	-10.9145
suki	-10.9145
訪	-10.9147
▁foreigners	-10.9148
国鉄	-10.9148
芸能	-10.915
ほどの	-10.9154
kkai	-10.9155
たちは	-10.9159
できた	-10.916
Bo	-10.9161
大谷	-10.9161
くなる	-10.9164
▁INOUE	-10.9165
▁science	-10.9165
5,000	-10.9165
住職	-10.9172
脚	-10.918
だけで	-10.918
ェ	-10.9184
▁relations	-10.9185
▁Mirror	-10.9187
▁haiku	-10.9187
しても	-10.9192
▁Dis	-10.9192
▁Yoshimune	-10.9194
Ba	-10.9197
▁path	-10.9198
▁1867	-10.92
秋田	-10.9202
▁India	-10.9208
うえ	-10.9209
硬	-10.9209
▁settlement	-10.9209
▁degree	-10.9209
▁intended	-10.9209
▁Theater	-10.9209
▁residents	-10.921
▁possessed	-10.9216
▁Hito	-10.9217
技法	-10.9218
▁joint	-10.9223
と称した	-10.9225
下車	-10.9227
▁product	-10.9228
▁attended	-10.9228
日付	-10.923
▁reinforce	-10.923
に転任	-10.9231
琵琶湖	-10.9231
基盤	-10.9232
でん	-10.9232
だろう	-10.9233
▁Ishiyama	-10.9235
▁fee	-10.9236
▁Takakura	-10.9238
長州藩	-10.9238
▁200	-10.9244
の場合は	-10.9246
bori	-10.9247
▁directed	-10.9248
▁historic	-10.9249
地蔵	-10.9251
▁Dutch	-10.9253
▁gift	-10.9253
▁feature	-10.9253
▁throw	-10.9253
▁translated	-10.9253
▁check	-10.9254
に位置する	-10.9256
はず	-10.9258
統合	-10.9259
たこと	-10.9264
waiting	-10.9265
Engishiki	-10.9265
洞	-10.927
午	-10.927
not	-10.9272
▁HI	-10.9273
欧	-10.9273
荷	-10.9274
借	-10.9274
応仁の乱	-10.9274
棒	-10.9274
▁watch	-10.9276
giri	-10.9276
▁Hidetada	-10.9277
武田氏	-10.9278
▁reduced	-10.9279
書道	-10.928
いき	-10.928
提	-10.9282
kagami	-10.9291
乳	-10.9293
光秀	-10.9296
▁commercial	-10.9296
▁divine	-10.9296
魔	-10.9296
が行われる	-10.9297
丹波国	-10.9298
▁putting	-10.9304
ことにより	-10.9304
の姿	-10.9311
定着	-10.9311
形成	-10.9313
甲斐	-10.9318
成功	-10.9318
▁Esoteric	-10.9319
chamberlain	-10.9319
』)。	-10.9321
こともあった	-10.9321
▁prefectural	-10.9324
jiki	-10.9326
のちの	-10.9329
▁mention	-10.9332
koto	-10.9335
現在も	-10.9338
徴	-10.9339
発見	-10.934
畳	-10.9341
▁cousin	-10.9341
according	-10.9341
平安時代後期	-10.9342
▁spear	-10.9342
撮影所	-10.9343
十六	-10.9343
▁sites	-10.9349
もり	-10.9349
ants	-10.9354
▁Moku	-10.9356
ざる	-10.9358
本来は	-10.936
kun	-10.9363
place	-10.9363
基準	-10.9364
さまざまな	-10.9365
▁Bizen	-10.9366
回復	-10.9366
ども	-10.9369
▁Hama	-10.9369
いく	-10.9369
良親王	-10.9372
▁relation	-10.9374
に従って	-10.938
のみこと	-10.9382
丼	-10.9385
尋	-10.9385
▁holiday	-10.9385
▁trouble	-10.9385
経緯	-10.9386
GUCHI	-10.9386
▁supporting	-10.9391
えん	-10.9392
▁warring	-10.9394
留学	-10.94
酒造	-10.94
でない	-10.9402
将軍家	-10.9403
▁traffic	-10.9407
穀	-10.9407
▁desire	-10.9408
完全に	-10.9408
御用	-10.9408
武蔵国	-10.9409
ていく	-10.9409
▁thereafter	-10.9411
盟	-10.9413
fect	-10.9416
の出身	-10.9419
つける	-10.942
置き	-10.9422
取った	-10.9425
▁Juichii	-10.943
基本的に	-10.943
▁Silla	-10.943
くり	-10.943
▁comic	-10.9431
kubo	-10.9432
当て	-10.944
▁successively	-10.9441
▁ruler	-10.9442
勧	-10.9444
を進め	-10.9445
▁1928	-10.9448
▁occupied	-10.9452
象徴	-10.9452
He	-10.9456
▁farm	-10.9459
装束	-10.9466
▁Yoshiie	-10.9467
勤め	-10.9469
革	-10.9471
▁trip	-10.9474
磯	-10.9474
に基づく	-10.9474
▁Shizuoka	-10.9474
▁receiving	-10.9474
最古の	-10.9475
▁chance	-10.9476
▁points	-10.9479
Jin	-10.9479
斎藤	-10.948
▁rate	-10.9481
入れた	-10.9485
江戸城	-10.9485
到着	-10.9498
浪士	-10.9498
▁Thereafter	-10.9498
Chronicle	-10.95
売り	-10.95
ものもある	-10.95
▁pair	-10.9501
行く	-10.9501
Hon	-10.9501
imperial	-10.9502
▁establishing	-10.9502
ずる	-10.9502
▁prayer	-10.9511
陸奥国	-10.9511
識	-10.9515
▁Arashiyama	-10.9519
▁diplomatic	-10.9519
▁machine	-10.952
▁Murasaki	-10.952
を挙げ	-10.9522
▁Chugu	-10.9524
ほん	-10.9524
起こった	-10.9525
▁figures	-10.9526
▁exhibition	-10.9526
▁Record	-10.9528
▁Heijo	-10.9531
▁learn	-10.9532
王子	-10.954
▁Amaterasu	-10.9542
▁progress	-10.9542
▁Hokuriku	-10.9542
を結ぶ	-10.9542
実際の	-10.9542
2006	-10.9542
法名	-10.9543
きん	-10.9545
▁Sakura	-10.9553
下げ	-10.9559
掌	-10.9563
罰	-10.9564
▁Port	-10.9564
▁Eastern	-10.9565
Sai	-10.9565
▁Lu	-10.9566
scription	-10.9572
表示	-10.9576
高等	-10.9578
としていた	-10.9579
千家	-10.958
▁Ota	-10.9586
▁120	-10.9586
納め	-10.9587
腕	-10.9587
槍	-10.9587
認識	-10.9587
▁NISHI	-10.9588
▁rebuilt	-10.9588
▁getting	-10.9591
を唱え	-10.9592
ME	-10.9593
muro	-10.9593
じん	-10.9594
Major	-10.9594
に任じられた	-10.9595
Local	-10.9596
憲法	-10.9598
場合には	-10.96
献	-10.96
▁Hoku	-10.9602
wan	-10.9604
pul	-10.9605
の成立	-10.9605
事態	-10.9605
1,000	-10.9608
▁You	-10.9609
鉢	-10.961
佐々木	-10.961
隅	-10.961
▁royal	-10.961
Matsudaira	-10.961
要請	-10.9612
▁fear	-10.9614
▁Shichi	-10.9614
明治天皇	-10.9616
▁display	-10.9617
▁Nagamasa	-10.9618
▁implemented	-10.9623
開山	-10.9624
▁300	-10.9626
ency	-10.9627
このような	-10.9628
▁Old	-10.9632
恭	-10.9633
聖徳太子	-10.9633
▁bird	-10.9633
足利尊氏	-10.9633
範囲	-10.9633
でもあった	-10.9635
▁Ukone	-10.9638
共同	-10.9639
光寺	-10.964
載	-10.9644
播磨国	-10.9646
ュー	-10.9649
に分かれ	-10.965
▁Such	-10.9653
ify	-10.9654
▁Treaty	-10.9656
▁policies	-10.9656
▁problems	-10.9656
困難	-10.9656
親鸞	-10.9656
▁precincts	-10.9659
▁employed	-10.9663
を用いた	-10.9668
▁explained	-10.967
すぎ	-10.9678
曾	-10.9678
麹	-10.9678
万葉集	-10.9678
▁ICHIJO	-10.9679
▁nickname	-10.9679
▁probably	-10.9679
炊	-10.9679
▁corner	-10.9679
ふじわらの	-10.9679
展示	-10.9679
▁FUKU	-10.9679
800	-10.968
平家物語	-10.968
▁handle	-10.968
▁Inari	-10.9683
更	-10.9685
▁characteristic	-10.9685
▁chosen	-10.9688
を意味する	-10.969
wise	-10.9701
▁Reizei	-10.9702
込む	-10.9702
▁alive	-10.9703
▁evening	-10.9704
gosho	-10.9704
嫡流	-10.9705
▁returning	-10.9707
▁needed	-10.9708
死亡	-10.9708
kashi	-10.9708
たちが	-10.9713
▁Pass	-10.9715
生母	-10.9715
▁rich	-10.9717
と同様	-10.9718
lla	-10.972
over	-10.9721
▁Kana	-10.9721
役職	-10.9723
▁現在は	-10.9723
劣	-10.9724
土御門	-10.9724
▁dismissed	-10.9724
▁geisha	-10.9724
▁revolt	-10.9725
▁rebel	-10.9726
仙台	-10.9727
▁Junii	-10.9729
▁colors	-10.9731
nouchi	-10.9732
献上	-10.9732
建武	-10.9733
創作	-10.9737
大仏	-10.9737
700	-10.9739
tani	-10.9741
kara	-10.9741
▁1950	-10.9743
茶屋	-10.9746
nagi	-10.9747
▁Garden	-10.9747
▁Kofun	-10.9748
▁Yamaguchi	-10.975
▁confirmed	-10.9755
赤松	-10.9755
▁daily	-10.9756
の下に	-10.9759
まち	-10.9763
mata	-10.9769
わず	-10.9769
鷹	-10.977
滋	-10.9771
懸	-10.9771
▁percent	-10.9771
距離	-10.9771
失敗	-10.9771
会津	-10.9772
▁donated	-10.9772
taki	-10.9774
each	-10.9774
▁tourist	-10.9775
詰	-10.9777
▁obtain	-10.9777
武器	-10.9778
飾り	-10.9779
nyu	-10.9779
dent	-10.9785
超	-10.9786
▁fierce	-10.9794
▁shamisen	-10.9794
赤穂	-10.9795
断絶	-10.9796
▁Yoshinori	-10.9797
六条	-10.9799
▁Kamigyo	-10.9801
▁Omiya	-10.9802
▁Gifu	-10.9803
Prince	-10.9807
gei	-10.981
てい	-10.981
していく	-10.9811
かれる	-10.9815
kita	-10.9815
鹿児島	-10.9816
置かれ	-10.9816
代官	-10.9817
療	-10.9817
▁College	-10.9817
▁width	-10.9817
3,000	-10.9817
起き	-10.9817
▁Based	-10.9818
幼少	-10.9818
皇位	-10.982
script	-10.9822
koshi	-10.9826
共通	-10.9827
に迎え	-10.9829
▁Masako	-10.9833
鈴	-10.9837
今出川	-10.984
謙	-10.984
▁Rebellion	-10.984
ヌ	-10.984
阿弥陀如来	-10.984
研究所	-10.984
▁Bai	-10.9841
point	-10.9842
鉄砲	-10.9843
▁Ar	-10.9843
▁Iemitsu	-10.9843
▁extend	-10.9847
カツ	-10.9847
側室	-10.9848
見た	-10.9848
2007	-10.9849
▁reality	-10.9849
▁write	-10.9853
pin	-10.9855
十八	-10.9859
▁miso	-10.9859
安土桃山時代	-10.9861
正面	-10.9863
▁features	-10.9863
燈	-10.9863
▁AKECHI	-10.9863
▁separate	-10.9864
環境	-10.9864
tsura	-10.9864
を除く	-10.9865
▁Not	-10.9867
けい	-10.9876
▁1970	-10.9877
見解	-10.988
嫡男	-10.9881
もあって	-10.9881
▁likely	-10.9884
ってきた	-10.9886
なければ	-10.9887
▁Following	-10.9887
▁Okinawa	-10.9887
前述の	-10.9888
▁roads	-10.9888
range	-10.9894
説話	-10.9894
を表す	-10.9895
」・「	-10.9895
奈良市	-10.9895
嫡子	-10.9896
主導	-10.9897
成長	-10.9901
rail	-10.9903
越後	-10.9904
Lady	-10.9905
ルー	-10.9906
本来の	-10.9908
幡	-10.9908
▁Sato	-10.9909
▁Chin	-10.991
株	-10.991
乃	-10.991
綿	-10.991
〕	-10.991
ドイツ	-10.991
役者	-10.9912
往生	-10.9912
共に	-10.9915
▁慶応	-10.9917
▁musical	-10.9918
ler	-10.9918
rising	-10.9921
直通	-10.9922
On	-10.9928
あん	-10.9929
▁Group	-10.9934
〔	-10.9934
安倍	-10.9936
▁player	-10.9937
受領	-10.9939
▁surrender	-10.994
農業	-10.9944
発生した	-10.9944
食品	-10.9945
そこに	-10.9948
サイ	-10.9956
生年不詳	-10.9957
味噌	-10.9957
覆	-10.9957
▁imposed	-10.9957
▁counter	-10.9958
擁立	-10.9958
僧正	-10.996
結局	-10.9962
▁restaurant	-10.9966
zi	-10.9966
調理	-10.9966
cket	-10.9967
▁Yuan	-10.9974
詰め	-10.9975
▁戦後	-10.9977
縫	-10.9981
▁ちなみに	-10.9981
呪	-10.9981
▁doubt	-10.9981
醸造	-10.9982
▁pine	-10.9985
▁31,	-10.9985
▁concerned	-10.9988
の三男	-10.9988
▁methods	-10.9989
ることができる	-10.9989
添	-10.999
爵	-10.9992
▁SEN	-10.9992
状の	-10.9994
行幸	-10.9994
▁strength	-10.9995
ular	-10.9995
大友	-10.9996
▁Rokujo	-10.9996
迎	-10.9996
かける	-10.9999
with	-11.0003
赦	-11.0004
貝	-11.0004
』・『	-11.0005
▁Togu	-11.0005
暗	-11.0005
確保	-11.0008
一般的な	-11.0008
▁官位は	-11.0009
▁Asahi	-11.001
知事	-11.0011
譜代	-11.0012
▁Tenchi	-11.0012
書いた	-11.0012
修理	-11.0013
医学	-11.0015
sashi	-11.0018
▁practices	-11.0022
▁Shiro	-11.0023
移動	-11.0024
いい	-11.0025
家庭	-11.0026
此	-11.0028
▁herself	-11.0028
▁rumor	-11.0028
▁Song	-11.003
関与	-11.0033
▁depend	-11.0036
▁oil	-11.0036
アン	-11.0037
▁1987	-11.0037
▁shot	-11.004
▁Jito	-11.0046
木津	-11.0049
Mei	-11.0052
虚	-11.0052
&	-11.0052
▁JNR	-11.0052
▁answer	-11.0052
▁expert	-11.0052
隔	-11.0052
currently	-11.0053
を加え	-11.0053
むら	-11.0056
ったもの	-11.0056
▁crossing	-11.0057
鳥取	-11.0057
▁steam	-11.0059
に入れ	-11.0059
三河	-11.006
▁popularity	-11.006
▁Udon	-11.0061
一番	-11.0061
▁Tsushima	-11.0061
あい	-11.0061
▁win	-11.0066
▁routes	-11.0068
ox	-11.0071
白河	-11.0071
巨	-11.0075
幾	-11.0076
▁municipal	-11.0076
▁pillar	-11.0076
▁fortune	-11.0076
一説に	-11.0076
ヶ月	-11.0079
▁Kamigata	-11.008
わら	-11.0081
Ri	-11.0081
説がある	-11.0081
ISHI	-11.0082
▁Military	-11.0083
▁customs	-11.0084
▁pull	-11.0085
tachi	-11.0085
▁script	-11.0086
上げた	-11.0087
En	-11.0088
の中でも	-11.0089
を歴任	-11.0094
▁seated	-11.0099
河内国	-11.01
輸送	-11.01
屏風	-11.01
消滅	-11.01
日蓮	-11.01
▁rakugo	-11.01
vel	-11.0102
しながら	-11.0104
の嫡男	-11.0107
▁Age	-11.0108
▁1945	-11.011
に任命され	-11.0116
あって	-11.0117
高速	-11.0123
勧修寺	-11.0124
▁bottom	-11.0124
▁campaign	-11.0124
処刑	-11.0124
▁Confucian	-11.0125
mage	-11.0125
▁entertainment	-11.0126
現地	-11.0126
の中には	-11.0126
faced	-11.0127
不動	-11.0133
の時代に	-11.0134
出して	-11.0135
伊勢国	-11.0138
ずつ	-11.0138
second	-11.0143
武者	-11.0144
▁日本では	-11.0146
ddle	-11.0147
▁decoration	-11.0148
▁stood	-11.0148
▁Shosanmi	-11.0148
箇所	-11.015
▁tools	-11.0151
盆	-11.0153
後述	-11.0154
民衆	-11.0154
いつ	-11.0158
植物	-11.0159
pet	-11.0159
▁こうして	-11.016
▁1873	-11.0161
卒	-11.0162
play	-11.0164
門跡	-11.0165
ひめ	-11.0169
表面	-11.017
が生じ	-11.0171
▁temperature	-11.0172
▁scriptures	-11.0172
に至った	-11.0172
▁interpretation	-11.0172
▁allied	-11.0172
いくつか	-11.0174
▁Shimazu	-11.0175
分家	-11.0178
ておらず	-11.018
筆頭	-11.018
▁Honen	-11.0183
▁1863	-11.0183
▁council	-11.0187
▁Myoo	-11.0193
することで	-11.0195
梁	-11.0196
屯	-11.0196
▁Platform	-11.0196
▁distributed	-11.0196
▁victory	-11.0196
▁Siege	-11.0196
▁subordinate	-11.0196
始まった	-11.0197
▁Yamagata	-11.0199
▁pond	-11.02
▁advocated	-11.0201
渡り	-11.0205
出仕	-11.0207
▁1931	-11.0211
▁guards	-11.0211
あと	-11.0211
▁例えば	-11.0211
ちゃ	-11.0212
公式	-11.0218
駐	-11.022
▁SAIGO	-11.022
▁changing	-11.022
▁search	-11.022
▁clearly	-11.0221
漢字	-11.0224
千葉	-11.0226
伝えられている	-11.0226
▁arch	-11.0228
▁link	-11.023
商品	-11.0235
JIMA	-11.0236
general	-11.0242
同志社	-11.0243
誇	-11.0244
窓	-11.0244
▁defend	-11.0244
▁huge	-11.0244
朱雀	-11.0244
停止	-11.0244
▁flat	-11.0245
▁felt	-11.0245
nawa	-11.0247
koro	-11.0249
▁Taisha	-11.025
所在地	-11.0251
▁dispatch	-11.0251
中学校	-11.0253
▁Gin	-11.0258
▁Kishu	-11.026
女房	-11.0261
▁1870	-11.0263
出陣	-11.0267
値	-11.0268
萬	-11.0268
▁Yamana	-11.0268
▁basically	-11.0269
▁flute	-11.027
五十	-11.027
数多く	-11.0271
詳細	-11.0275
▁ascended	-11.0276
を始め	-11.0286
の弟子	-11.0288
伽藍	-11.0293
Bodhisattva	-11.0293
▁instruction	-11.0293
失脚	-11.0293
定め	-11.0293
▁Kazusa	-11.0298
京都で	-11.0305
精神	-11.0305
▁2001	-11.0305
▁Yoshida	-11.0305
という説	-11.0309
カレー	-11.0311
▁horses	-11.0311
fish	-11.0313
進出	-11.0315
木造	-11.0315
made	-11.0316
独特の	-11.0317
Commander	-11.0317
▁magazine	-11.0317
藤原北家	-11.0317
▁Outer	-11.032
誉	-11.0329
tara	-11.0332
▁Bon	-11.0335
六角	-11.0338
抵抗	-11.0341
紐	-11.0341
桓武天皇	-11.0341
▁advisor	-11.0341
▁agricultural	-11.0341
▁criminal	-11.0341
▁deceased	-11.0341
平定	-11.0343
▁concluded	-11.0345
▁Aichi	-11.0347
阿弥陀	-11.0351
向き	-11.0352
▁adding	-11.0355
▁insisted	-11.0355
▁achievement	-11.0356
ウン	-11.0357
貢	-11.036
を得る	-11.0362
▁transport	-11.0364
軸	-11.0366
January	-11.0366
▁grain	-11.0367
▁Murakami	-11.0367
trust	-11.0369
であるため	-11.0369
してしまった	-11.037
▁outer	-11.037
合流	-11.0373
低い	-11.0381
と考えられ	-11.0382
▁Tea	-11.0383
宝永	-11.0385
長政	-11.0387
菜	-11.0387
▁KYOGOKU	-11.0391
▁vegetables	-11.0391
薫	-11.0391
かず	-11.0392
山内	-11.0392
▁parents	-11.0393
頼朝の	-11.0395
面積	-11.0397
化し	-11.0399
born	-11.04
四天王	-11.0402
こともあり	-11.0406
庶	-11.0407
優れた	-11.0407
かけた	-11.0408
野村	-11.0409
▁Or	-11.0415
▁despite	-11.0415
を中心とした	-11.0415
宿禰	-11.0415
family	-11.0417
言う	-11.0417
武将	-11.042
position	-11.0421
熊本	-11.0426
▁1980	-11.0433
▁key	-11.0433
浄土宗	-11.0438
亮	-11.044
と結婚	-11.044
抱	-11.044
雑誌	-11.044
東北	-11.0444
ppon	-11.0445
二つ	-11.0445
wood	-11.0449
禅宗	-11.0455
神楽	-11.0459
の名前	-11.0462
一郎	-11.0463
駄	-11.0465
▁Sessho	-11.0465
▁Kitano	-11.0466
少将	-11.0468
▁snow	-11.0468
dies	-11.0468
based	-11.0471
guri	-11.0472
続き	-11.0474
大字	-11.0474
主君	-11.0476
▁Kuma	-11.0477
▁Tera	-11.0479
▁send	-11.048
蒲	-11.0485
▁possibility	-11.0489
▁Tosho	-11.049
選ばれ	-11.049
おく	-11.0494
awase	-11.0498
▁hill	-11.05
集落	-11.05
ばれ	-11.05
おこ	-11.0501
▁Matsuri	-11.0507
ものとして	-11.0507
▁Ikko	-11.0507
六位	-11.0507
十一	-11.0507
出兵	-11.0507
▁envoys	-11.0507
に任官	-11.0509
▁passing	-11.051
▁enjoyed	-11.0511
著書	-11.0511
箏	-11.0513
はほとんど	-11.0513
衝	-11.0514
昇進	-11.0514
▁integrated	-11.0514
▁murder	-11.0514
▁hours	-11.0516
上下	-11.0518
seven	-11.0518
▁10,000	-11.0518
URA	-11.052
鳥居	-11.0523
rui	-11.0523
▁Kanrei	-11.0523
▁finished	-11.0524
▁1898	-11.0528
▁resulting	-11.0529
てん	-11.053
nichi	-11.0531
ranked	-11.0534
(1868	-11.054
▁Shio	-11.0541
横浜	-11.0542
▁suggests	-11.0542
行なわれ	-11.0542
描かれている	-11.0542
紀州	-11.0544
▁ear	-11.055
▁effort	-11.0555
もち	-11.0555
多数の	-11.0555
such	-11.0557
張り	-11.0559
残り	-11.0559
になっていた	-11.0561
▁aimed	-11.0563
誌	-11.0564
bayashi	-11.0564
“	-11.0564
検非違使	-11.0564
窮	-11.0564
▁license	-11.0564
▁newspaper	-11.0564
宇都宮	-11.0564
を占め	-11.0568
▁ceremonial	-11.057
gui	-11.0571
▁Ii	-11.0572
▁understand	-11.0573
▁drive	-11.0577
法令	-11.0577
区分	-11.0579
▁Tetsu	-11.0581
▁studying	-11.0583
西軍	-11.0585
いていた	-11.0588
歯	-11.0589
▁sick	-11.0589
大きい	-11.059
祈願	-11.059
居住	-11.0593
大輔	-11.0594
▁Nagato	-11.0594
かす	-11.0595
▁abandoned	-11.0596
できなかった	-11.0597
とも呼ばれ	-11.0597
を用いて	-11.06
▁expanded	-11.0601
いえ	-11.0603
という言葉	-11.0607
事から	-11.0612
さえ	-11.0613
▁preparation	-11.0614
▁examination	-11.0614
▁archery	-11.0615
長州	-11.0615
日本語	-11.0616
▁media	-11.0617
▁centralized	-11.0618
where	-11.0621
about	-11.0622
▁OUCHI	-11.0624
ていなかった	-11.0624
▁our	-11.0628
じゅ	-11.0631
官軍	-11.0631
▁Fukui	-11.0632
アル	-11.0633
▁carrying	-11.0636
柔	-11.0639
▁governed	-11.0639
桑	-11.064
▁secular	-11.064
▁mouth	-11.064
寂	-11.064
▁navy	-11.064
論争	-11.0643
平野	-11.0644
高麗	-11.0644
嵯峨天皇	-11.0644
病気	-11.0646
っと	-11.0647
蘇我	-11.0649
すこと	-11.0649
▁Otani	-11.0649
盛り	-11.0652
▁Tsuki	-11.0652
▁1864	-11.0653
firm	-11.0655
畠	-11.0657
詳細は	-11.0658
print	-11.0658
▁displayed	-11.0659
従来の	-11.0661
於	-11.0665
遭	-11.0665
▁fifty	-11.0665
伊勢神宮	-11.0666
最大の	-11.0666
欧米	-11.0667
▁containing	-11.0678
のみや	-11.0681
四男	-11.0683
著作	-11.0687
掘	-11.0689
▁Gosho	-11.069
▁pupil	-11.069
連絡	-11.0691
滞在	-11.0691
▁Horikawa	-11.0691
宣旨	-11.0692
装飾	-11.0693
▁devoted	-11.0695
年貢	-11.0696
▁better	-11.0699
Kei	-11.0701
▁eyes	-11.0708
▁Four	-11.0709
タイ	-11.0713
材料	-11.0719
ベル	-11.0721
葬儀	-11.0723
hereditary	-11.0724
▁corresponding	-11.0729
役所	-11.0729
強化	-11.0732
刊	-11.0736
ものがある	-11.0738
盗	-11.0741
邪	-11.0741
▁easy	-11.0741
俵	-11.0741
積極的に	-11.0741
壬生	-11.0742
階級	-11.0743
ついに	-11.0744
▁celebrated	-11.075
▁setting	-11.0752
数え	-11.0753
▁Russia	-11.076
yomi	-11.0766
沖	-11.0766
その他の	-11.0766
にわたって	-11.0767
▁SUGAWARA	-11.0767
▁behavior	-11.0767
▁float	-11.0767
▁armed	-11.0767
不満	-11.0779
信玄	-11.078
神事	-11.078
tora	-11.0781
▁host	-11.0781
家紋	-11.0789
毘	-11.0792
を持った	-11.0794
の由来	-11.0796
辞職	-11.0796
喜多	-11.0798
▁praised	-11.0798
ancient	-11.0802
▁Sanin	-11.0809
側面	-11.0813
注目	-11.0813
タン	-11.0815
揚	-11.0817
夷	-11.0818
履	-11.0818
棚	-11.0818
▁HATAKEYAMA	-11.0818
▁appeal	-11.0818
▁reorganized	-11.0818
過程	-11.0818
▁Nikko	-11.0822
▁indicated	-11.0829
Record	-11.0834
障子	-11.0835
もない	-11.0838
を名乗る	-11.0843
▁Branch	-11.0843
▁OKUBO	-11.0843
▁agreement	-11.0843
▁thirteen	-11.0843
緩	-11.0843
▁address	-11.0844
試験	-11.0844
を使用し	-11.0844
▁Fusa	-11.0845
▁Sekkan	-11.0845
▁Diary	-11.0846
補佐	-11.0847
▁Limited	-11.0847
れない	-11.0847
制限	-11.0848
伝統的な	-11.0848
▁appoint	-11.0849
尾張国	-11.0855
世紀末	-11.0857
▁MIYA	-11.0862
story	-11.0864
上演	-11.0866
▁taxi	-11.0868
大海人皇子	-11.0869
皆	-11.0869
管轄	-11.0869
募	-11.0869
▁dancing	-11.0869
鎮圧	-11.087
四国	-11.0871
整理	-11.0871
養老	-11.0872
▁elements	-11.0874
福岡	-11.0875
によるもの	-11.0877
ブル	-11.0879
実子	-11.088
two	-11.0884
伏見宮	-11.0894
彫	-11.0895
糖	-11.0895
宜	-11.0895
▁caught	-11.0895
▁purchase	-11.0895
▁Tottori	-11.0895
▁yeast	-11.0895
▁pilgrimage	-11.0895
▁representing	-11.0895
助け	-11.0898
dayu	-11.0902
づく	-11.0907
法然	-11.091
▁Shikoku	-11.0913
払	-11.0913
のもと	-11.0914
政所	-11.0914
解説	-11.0914
▁America	-11.0915
▁mine	-11.0915
と同時に	-11.0916
として知られる	-11.0918
あくまで	-11.0921
▁anthology	-11.0921
▁opposition	-11.0921
しようとした	-11.0922
▁Tsunayoshi	-11.0923
阿波	-11.0923
最近	-11.0925
写真	-11.0925
▁1949	-11.0932
を使う	-11.0933
▁moat	-11.0937
水戸	-11.0941
uke	-11.0943
▁tenth	-11.0945
縦	-11.0947
▁Rokkaku	-11.0947
▁Studio	-11.0947
+	-11.0947
▁SAITO	-11.0947
▁residential	-11.0947
遍	-11.0947
▁Kaoru	-11.0947
▁secure	-11.0947
検校	-11.0949
▁Ezo	-11.095
病死	-11.0956
▁Nagayoshi	-11.096
December	-11.0961
田村	-11.0967
Gen	-11.0969
▁Councilor	-11.0969
諱	-11.097
住民	-11.0973
條	-11.0973
▁Society	-11.0973
▁punished	-11.0973
▁proceed	-11.0973
崩壊	-11.0973
改易	-11.0975
火災	-11.0975
▁guide	-11.0975
▁construct	-11.0979
▁1907	-11.0982
▁thereby	-11.0985
前田	-11.0987
明石	-11.0991
ject	-11.0995
岡山	-11.0998
▁liter	-11.0999
▁Disturbance	-11.0999
▁proposal	-11.0999
▁understood	-11.0999
▁captain	-11.0999
▁Priest	-11.0999
tial	-11.0999
原料	-11.1014
とおり	-11.1017
▁Ogura	-11.1018
▁stored	-11.1023
▁exception	-11.1024
促	-11.1025
酢	-11.1025
▁economy	-11.1025
▁crime	-11.1025
▁HORI	-11.1025
輿	-11.1025
▁Rinzai	-11.1026
gyu	-11.1027
umi	-11.1028
並び	-11.1028
太刀	-11.1031
上記	-11.1031
についても	-11.1032
▁Yoshihiro	-11.1034
▁Xi	-11.1034
かない	-11.1034
▁Kenshin	-11.1044
▁myth	-11.1046
を求める	-11.1046
後半	-11.1047
浄瑠璃	-11.1051
▁trend	-11.1052
▁thanks	-11.1052
▁sovereignty	-11.1052
じゅう	-11.1052
▁Sanyo	-11.1053
持つ	-11.1053
▁Ritsu	-11.1054
nashi	-11.1054
再度	-11.1059
行われていた	-11.106
▁protected	-11.1062
コース	-11.1062
▁Reform	-11.1063
▁Car	-11.1063
▁require	-11.1065
military	-11.1068
mark	-11.1068
取り入れ	-11.1069
込んで	-11.107
握	-11.1071
▁Funa	-11.1077
拒否	-11.1078
亜	-11.1078
▁Representative	-11.1078
▁impossible	-11.1078
▁alone	-11.1079
しようと	-11.1083
使節	-11.1083
乗車	-11.1085
hoku	-11.1087
に相当する	-11.1087
つけて	-11.1087
▁expected	-11.1088
生地	-11.1089
▁raise	-11.1092
National	-11.1095
▁1960	-11.1097
郭	-11.1101
▁Normal	-11.1104
帝国大学	-11.1106
waki	-11.1106
準備	-11.1108
▁Imagawa	-11.1108
法師	-11.1108
▁initially	-11.111
▁imported	-11.1111
江戸時代中期	-11.1112
Ryo	-11.1112
▁Yoshisada	-11.1113
各種	-11.1113
▁explain	-11.1115
解体	-11.1116
▁Shomu	-11.1119
▁1582	-11.112
lion	-11.112
▁Abe	-11.1129
がなされ	-11.113
秦	-11.113
殊	-11.113
必ずしも	-11.1131
帥	-11.1131
淳	-11.1131
▁reputation	-11.1131
▁Kameoka	-11.1131
大規模な	-11.1131
▁branches	-11.1131
天狗	-11.1132
襲撃	-11.1133
ランド	-11.1133
狩野	-11.1136
▁Furu	-11.1142
Ken	-11.1148
趣	-11.1156
▁Police	-11.1157
▁Subsequently	-11.1157
▁combined	-11.1157
負担	-11.1158
▁worshipped	-11.1158
知識	-11.1159
▁income	-11.1159
判断	-11.116
を与えられた	-11.1161
Six	-11.1161
を有する	-11.1162
▁*	-11.1163
current	-11.1166
▁prefixed	-11.1167
▁brew	-11.1168
シュ	-11.1171
名乗り	-11.1175
残されている	-11.1176
▁harvest	-11.1177
おき	-11.1179
食事	-11.118
信濃国	-11.1181
▁1600	-11.1182
▁Saku	-11.1182
古今和歌集	-11.1184
▁DATE	-11.1184
壬申の乱	-11.1184
▁landscape	-11.1185
十五	-11.1185
▁kuge	-11.1186
▁shogunal	-11.1188
▁Yoshihisa	-11.119
▁fishing	-11.1191
舞鶴市	-11.1193
試み	-11.1194
桃	-11.1198
ball	-11.1202
酵母	-11.1204
道場	-11.1205
摂	-11.1206
▁Engi	-11.1207
繋	-11.121
▁Civil	-11.121
▁attitude	-11.121
▁supply	-11.121
いわ	-11.1211
山古墳	-11.1211
カード	-11.1212
英語	-11.1217
duct	-11.1218
▁visiting	-11.1223
父子	-11.1225
▁prove	-11.1226
▁soft	-11.1227
brother	-11.1231
連合	-11.1236
grand	-11.1236
灰	-11.1237
沙	-11.1237
▁Besides	-11.1237
処理	-11.1241
創立	-11.1241
定めた	-11.1243
連歌	-11.1243
北条時	-11.1244
渡来	-11.1244
平清盛	-11.1245
▁Both	-11.1245
教会	-11.1246
みな	-11.1246
▁arrested	-11.1249
の流れ	-11.1253
限り	-11.1254
teki	-11.1255
御前	-11.1257
▁drinking	-11.1259
麗	-11.126
好み	-11.1261
イメージ	-11.1264
株式会社	-11.1264
稿	-11.1264
twelve	-11.1264
▁Statue	-11.1264
▁bronze	-11.1264
▁combination	-11.1264
▁Republic	-11.1265
過去	-11.1265
収録	-11.1266
kkyo	-11.1267
daka	-11.1267
▁Fukushima	-11.1268
佐賀	-11.127
るべき	-11.1273
製法	-11.1281
▁Special	-11.1285
画家	-11.1286
▁acting	-11.1289
▁Keicho	-11.129
沈	-11.1291
貸	-11.1291
大きさ	-11.1291
を作る	-11.1293
▁Inaba	-11.1294
一定の	-11.1295
▁consideration	-11.1297
大原	-11.1302
複数の	-11.1302
尼子	-11.1305
Tokyo	-11.1305
▁rapidly	-11.1306
在位	-11.1306
▁daisho	-11.1307
市場	-11.1311
▁Horyu	-11.1311
Chief	-11.1313
mentioned	-11.1313
▁claimed	-11.1316
誰	-11.1318
▁Capital	-11.1318
体系	-11.1318
▁幼名は	-11.1319
薩	-11.1322
▁rear	-11.1325
▁differences	-11.1327
極めて	-11.133
▁experience	-11.1332
ifying	-11.1337
駅間	-11.1339
▁educational	-11.134
▁Yoshimoto	-11.134
墳	-11.1343
アイ	-11.1345
▁ghost	-11.1345
ゼ	-11.1345
▁strip	-11.1346
zon	-11.1346
紀伊	-11.1346
製品	-11.135
漫画	-11.1352
▁Okubo	-11.1356
年間に	-11.1357
不足	-11.1358
門下	-11.1358
場面	-11.1359
▁Makino	-11.136
▁Kotsu	-11.1361
▁Taiho	-11.1364
ないし	-11.1365
喪	-11.1372
▁cooperation	-11.1372
▁criticism	-11.1372
▁operating	-11.1372
▁opponent	-11.1372
▁finance	-11.1372
掲げ	-11.1372
▁blue	-11.1373
ZAKI	-11.1373
book	-11.1373
邸宅	-11.1373
▁plum	-11.1373
▁Expressway	-11.1373
遷都	-11.1374
vert	-11.1376
と同様に	-11.1379
▁Kyogen	-11.1386
sama	-11.1387
ではないか	-11.1388
▁departed	-11.1388
・・・	-11.139
▁Tengu	-11.1391
田氏	-11.1392
continu	-11.1395
lig	-11.1395
▁recently	-11.1395
倍	-11.1396
警	-11.1397
鉱	-11.1399
▁fresh	-11.1399
オランダ	-11.1399
今川	-11.14
減少	-11.1401
guard	-11.1401
tric	-11.1404
現れた	-11.1404
統制	-11.1405
▁Hata	-11.1405
対馬	-11.1409
悟	-11.142
hatsu	-11.1422
奈良時代の	-11.1423
室町	-11.1424
傾	-11.1425
文人	-11.1426
▁genealogy	-11.1426
を中心とする	-11.1426
阪急	-11.1427
▁argue	-11.1427
▁remark	-11.143
丁目	-11.1432
日蓮宗	-11.1434
守護職	-11.1434
信濃	-11.1435
をもつ	-11.1435
状に	-11.1437
nate	-11.1438
gashira	-11.144
▁Tu	-11.1445
を与え	-11.1446
▁doing	-11.1448
▁Ryoma	-11.145
に大きな	-11.1452
測	-11.1452
査	-11.1452
尹	-11.1454
▁International	-11.1454
▁facing	-11.1454
うじ	-11.1456
▁Hogen	-11.1457
▁begin	-11.1459
▁hole	-11.146
nagon	-11.1462
桃山	-11.1467
▁moment	-11.147
▁success	-11.1473
自身の	-11.1474
▁Award	-11.1477
祥	-11.1478
Middle	-11.1481
第二次世界大戦	-11.1481
収め	-11.1481
廟	-11.1481
愛知県	-11.1481
▁competition	-11.1481
▁distribution	-11.1481
▁leaf	-11.1481
3000	-11.1481
Minor	-11.1483
▁Historical	-11.1483
呼ばれ	-11.1485
▁Tajima	-11.1487
河原町	-11.1488
に登場する	-11.1495
▁Yamada	-11.1496
河内源氏	-11.1498
2005	-11.1502
▁Mie	-11.1502
▁secretary	-11.1504
third	-11.1508
蓋	-11.1509
fumi	-11.1509
▁altar	-11.1509
消費	-11.1509
▁Lord	-11.151
に従い	-11.1511
▁unclear	-11.1512
土岐	-11.1512
使用される	-11.1513
▁spent	-11.1515
出現	-11.1516
花園	-11.1516
▁killing	-11.1517
body	-11.1519
▁Iku	-11.152
守護代	-11.1521
部隊	-11.1523
シン	-11.1525
▁1884	-11.1526
まって	-11.1527
狂	-11.1535
▁MAEDA	-11.1536
▁NIJO	-11.1536
煙	-11.1536
りゅう	-11.1536
逃亡	-11.1536
参詣	-11.1537
を設立	-11.1539
という説もある	-11.1539
働き	-11.154
▁passage	-11.154
▁preserved	-11.1543
▁European	-11.1544
なっていった	-11.1545
と同じく	-11.1547
HIRO	-11.1548
振り	-11.1548
配流	-11.1553
福寺	-11.1553
Li	-11.1556
nish	-11.1556
▁Bungo	-11.1557
猿	-11.1562
呉	-11.1564
▁completion	-11.1564
▁electric	-11.1564
▁investigation	-11.1564
▁Each	-11.1564
に指定されている	-11.1564
▁trading	-11.1564
▁laid	-11.1566
儒教	-11.1567
の一つである	-11.1567
ませ	-11.1578
入道	-11.1588
sses	-11.1588
正式に	-11.1589
treat	-11.1589
administrator	-11.1591
▁compilation	-11.1591
▁opposite	-11.1591
とも言われる	-11.1591
▁assassinated	-11.1592
戦前	-11.1592
総裁	-11.1594
国立	-11.1599
興行	-11.16
Ga	-11.1603
▁Nihongi	-11.1603
kumi	-11.1604
▁1876	-11.1605
承和	-11.1607
一色	-11.161
完	-11.1614
▁secretly	-11.1615
義朝	-11.1616
みつ	-11.1616
▁page	-11.1616
▁players	-11.1616
祈	-11.1619
を用い	-11.1619
訴訟	-11.1619
苑	-11.1619
▁predecessor	-11.1619
法隆寺	-11.1619
▁Prime	-11.1619
▁speed	-11.1619
▁Niigata	-11.162
に生まれる	-11.162
▁Christianity	-11.1621
see	-11.1626
▁loved	-11.1628
雅楽	-11.1639
裁判	-11.1639
所在	-11.164
年齢	-11.164
塗	-11.1641
▁Academy	-11.1647
▁flourished	-11.1647
俳優	-11.1647
古くは	-11.1648
混ぜ	-11.1648
▁filled	-11.1648
を行っている	-11.1648
Shinto	-11.1651
氏長者	-11.1666
のみならず	-11.1675
三味線	-11.1675
豆腐	-11.1675
駅前	-11.1679
たけ	-11.1682
和服	-11.169
試	-11.169
大坂城	-11.1698
ぞう	-11.1699
井伊	-11.1699
の多くは	-11.17
らん	-11.1701
三男	-11.1703
PiTaPa	-11.1703
▁Literature	-11.1703
継いで	-11.1704
▁Nippon	-11.1704
▁Taro	-11.1704
▁assert	-11.1704
hiki	-11.1707
専用	-11.1707
場合がある	-11.171
▁trial	-11.1713
▁eel	-11.1714
万人	-11.172
夫人	-11.1721
を持って	-11.1728
家格	-11.173
労	-11.173
毒	-11.1731
肩	-11.1731
abolition	-11.1731
▁Studies	-11.1731
▁Throne	-11.1731
▁overseas	-11.1731
ながらも	-11.1732
Incidentally	-11.1732
を有し	-11.1732
高松	-11.1733
▁Sanetomo	-11.1734
▁skills	-11.1735
従五位上	-11.1735
められ	-11.1735
▁Taki	-11.1738
挙げ	-11.1741
そのような	-11.1751
ーズ	-11.1753
▁entertain	-11.1757
新設	-11.1757
▁contribution	-11.1759
▁nationwide	-11.1759
▁schedule	-11.1759
▁warm	-11.176
むしろ	-11.1761
認定	-11.1763
鈴木	-11.1763
国史	-11.1763
なす	-11.1767
後藤	-11.1773
Naga	-11.1777
▁seek	-11.1778
少し	-11.1778
付けた	-11.1783
minute	-11.1785
義務	-11.1787
どちら	-11.1788
臨済宗	-11.1788
▁Mausoleum	-11.1788
▁message	-11.1788
▁struggle	-11.1788
▁Yokohama	-11.1788
▁France	-11.1789
char	-11.1789
漢詩	-11.1789
▁Iwakura	-11.179
渡辺	-11.1791
をはじめとする	-11.1792
tile	-11.1793
に任ぜられ	-11.1799
一致	-11.1802
回り	-11.1803
▁looked	-11.1803
光院	-11.1803
領国	-11.1807
▁governmental	-11.1807
例外	-11.1809
淵	-11.1816
▁Thousand	-11.1816
▁opportunity	-11.1816
▁appropriate	-11.1816
締結	-11.1816
▁prayers	-11.1816
▁retirement	-11.1817
▁flee	-11.1817
如来	-11.1822
Matsu	-11.1822
▁American	-11.1823
を避け	-11.1823
▁672	-11.1824
スター	-11.1828
Ichi	-11.1829
江戸時代後期	-11.183
▁Kujo	-11.1831
坂本	-11.1832
遅	-11.1836
▁want	-11.1836
以前に	-11.1837
権守	-11.1837
本殿	-11.1839
▁1910	-11.1839
伊予	-11.1841
▁Sp	-11.1843
鎌	-11.1844
讃	-11.1844
本拠	-11.1844
▁KONDO	-11.1844
▁Poems	-11.1844
京都市左京区	-11.1844
▁visitors	-11.1844
家元	-11.1844
被害	-11.1845
MATSU	-11.1847
比売	-11.1848
▁neighboring	-11.1848
江戸時代初期	-11.1853
定められた	-11.1855
格式	-11.1855
▁notice	-11.1856
引用	-11.1858
ステ	-11.186
書物	-11.1867
カン	-11.1868
に編入	-11.1868
▁tall	-11.1871
Fuku	-11.1872
炉	-11.1873
と改称	-11.1873
▁Hakodate	-11.1873
▁emphasize	-11.1873
に比べ	-11.1873
が残っている	-11.1873
習慣	-11.1873
▁folding	-11.1873
師範学校	-11.1873
▁Their	-11.1873
倭国	-11.1875
▁ancestors	-11.1875
民俗	-11.1877
資格	-11.1878
▁Jomon	-11.1881
▁shosho	-11.1882
▁1996	-11.1883
が多かった	-11.1883
民族	-11.1884
町名	-11.1889
上り	-11.1891
姿勢	-11.1899
研	-11.1901
▁situated	-11.1901
▁suit	-11.1904
▁quickly	-11.1905
化する	-11.1907
文永	-11.191
られており	-11.1911
運用	-11.1914
gy	-11.1914
弘安	-11.1915
ってしまった	-11.192
こく	-11.192
筑	-11.1923
見え	-11.1924
鶏	-11.193
貧	-11.193
▁Baekje	-11.193
▁discontinued	-11.193
菱	-11.193
付ける	-11.193
明智光秀	-11.193
世紀後半	-11.1931
▁represented	-11.1932
に昇進	-11.1934
▁Hiki	-11.1937
扱	-11.1937
歳の時	-11.1939
べし	-11.1942
らす	-11.1942
▁helped	-11.1943
に至るまで	-11.1943
演出	-11.1944
後見	-11.1947
住吉	-11.195
日本における	-11.1957
麓	-11.1959
媛	-11.1959
▁Especially	-11.1959
▁judicial	-11.1959
▁truth	-11.1959
を描いた	-11.1959
砂糖	-11.1959
▁classification	-11.1961
▁layer	-11.1961
築城	-11.1963
▁invaded	-11.1964
加増	-11.1965
first	-11.1969
摂津	-11.197
▁wine	-11.1975
松本	-11.1976
ルート	-11.1978
抱え	-11.198
に改称	-11.198
鋳	-11.1986
溝	-11.1987
叡	-11.1988
▁Mandala	-11.1988
▁explanation	-11.1988
▁straight	-11.1988
▁pressure	-11.1988
提供	-11.1988
疑問	-11.1989
を見て	-11.1989
▁KATO	-11.199
九郎	-11.199
geki	-11.199
▁Ueno	-11.1991
ichiro	-11.1994
現れる	-11.1995
最後に	-11.1996
▁container	-11.1998
March	-11.1998
発足	-11.1999
隊士	-11.2
▁Tora	-11.2
こととなった	-11.2002
斯波	-11.2009
侵	-11.2016
李	-11.2016
猪	-11.2016
▁Service	-11.2016
包囲	-11.2017
Noh	-11.2017
輸入	-11.2018
剣術	-11.2019
博多	-11.202
▁cutting	-11.2021
貨物	-11.2027
Great	-11.2028
2008	-11.2029
▁1989	-11.2029
▁Tozai	-11.2029
分野	-11.2031
実権	-11.2031
左京	-11.2032
HA	-11.2035
▁pun	-11.2035
任官	-11.2038
されてきた	-11.2038
▁Mai	-11.2039
二郎	-11.2039
潜	-11.2045
▁Further	-11.2045
▁brush	-11.2045
▁edited	-11.2045
▁personnel	-11.2045
▁least	-11.2046
一覧	-11.2046
参考	-11.2047
菅原	-11.2048
と言われ	-11.2049
なん	-11.2054
▁Soto	-11.2058
時点で	-11.2059
家族	-11.206
政変	-11.2062
常陸国	-11.2063
駆	-11.2069
▁decorated	-11.2075
▁Yayoi	-11.2075
を継ぐ	-11.2077
を務める	-11.2078
▁Saicho	-11.208
書かれている	-11.208
上げる	-11.2087
味方	-11.2089
▁Zh	-11.209
rank	-11.209
してしまう	-11.2091
▁broken	-11.2092
三河国	-11.2094
こん	-11.2096
▁cup	-11.2098
▁Kazan	-11.2102
▁occur	-11.2103
ワイ	-11.2103
▁dated	-11.2104
▁museum	-11.2104
▁producing	-11.2104
▁specified	-11.2104
▁premise	-11.2104
▁goddess	-11.2104
▁printed	-11.2104
町にある	-11.2105
であったこと	-11.2106
墓所	-11.2107
扱う	-11.2107
▁consist	-11.2107
元弘	-11.2109
敗北	-11.211
齢	-11.2111
反発	-11.2113
▁Ohara	-11.2117
▁shell	-11.2117
▁fla	-11.2119
May	-11.2124
▁Hori	-11.2131
▁Origin	-11.2132
麿	-11.2133
本能寺の変	-11.2133
▁Oaza	-11.2133
▁Sixth	-11.2133
京阪電気鉄道	-11.2133
最澄	-11.2135
歌合	-11.2137
といわれ	-11.2138
▁revived	-11.2138
小松	-11.2138
で知られる	-11.2139
▁survived	-11.2139
common	-11.2141
▁Masanori	-11.2143
this	-11.2145
▁1999	-11.2145
判官	-11.2148
若い	-11.2149
整	-11.2153
婿	-11.2156
▁Komyo	-11.2157
病院	-11.2162
猛	-11.2162
匁	-11.2162
脈	-11.2162
▁whale	-11.2162
approx	-11.2162
▁disaster	-11.2162
加工	-11.2164
と称される	-11.2165
生駒	-11.2166
をいう	-11.2166
天台	-11.2167
▁valued	-11.217
十分	-11.217
留守	-11.2171
大いに	-11.2171
▁closely	-11.2172
収入	-11.2174
流罪	-11.2175
固め	-11.2177
▁titled	-11.2178
▁plants	-11.218
換	-11.218
▁Kondo	-11.2181
態	-11.219
マキノ	-11.2192
天平宝字	-11.2192
▁Culture	-11.2192
▁prosperity	-11.2192
▁squad	-11.2192
▁Nenbutsu	-11.2192
危機	-11.2192
居城	-11.2196
弁当	-11.2198
▁seats	-11.2201
正統	-11.2206
▁Masu	-11.2209
▁regime	-11.2214
アー	-11.2214
租	-11.2221
▁cuisine	-11.2221
▁clean	-11.2221
▁elementary	-11.2222
姉妹	-11.2222
フェ	-11.2222
他にも	-11.2224
を持っていた	-11.2224
すけ	-11.2226
ならば	-11.2226
▁formation	-11.2226
▁founding	-11.2227
議論	-11.223
▁Boshin	-11.2232
▁Hakata	-11.2235
February	-11.2237
▁previously	-11.2243
宮家	-11.2246
必	-11.2248
▁Sado	-11.225
鎖	-11.225
琵琶	-11.225
正親町	-11.2251
なかったため	-11.2252
kabu	-11.2254
▁unlike	-11.2254
吉川	-11.2257
▁kokuga	-11.2259
坂上	-11.226
▁Naishi	-11.2263
▁connecting	-11.2265
ばん	-11.2267
開通	-11.2268
設計	-11.2268
ごう	-11.2269
▁feel	-11.227
ナー	-11.2274
▁Pe	-11.2279
胡	-11.228
稚	-11.228
櫓	-11.228
2,000	-11.228
▁centimeters	-11.228
▁security	-11.228
▁blade	-11.228
▁compete	-11.2281
toge	-11.2281
投げ	-11.2282
▁baby	-11.2282
奉納	-11.2282
願い	-11.2288
葛城	-11.2289
▁skin	-11.2292
▁1946	-11.2292
mikoto	-11.2294
特定の	-11.2295
▁depart	-11.2296
▁Tokai	-11.2298
有名である	-11.2299
▁Hoki	-11.2299
下向	-11.2308
法要	-11.2309
賊	-11.231
徐々に	-11.231
驚	-11.231
▁marry	-11.231
▁contract	-11.2312
対策	-11.2313
▁Kyogoku	-11.2314
▁Hideyori	-11.2315
又は	-11.2318
bana	-11.2318
近藤	-11.2318
風習	-11.2319
▁Yoriie	-11.2319
▁Genroku	-11.2321
諸藩	-11.2323
権利	-11.2323
しまう	-11.2327
▁Yang	-11.2327
▁これに対して	-11.2329
▁subsequent	-11.233
▁1926	-11.2332
▁whereas	-11.2332
▁map	-11.2335
▁career	-11.2337
抗	-11.2338
到	-11.2339
碁	-11.234
婆	-11.234
▁TANAKA	-11.234
▁Secretary	-11.234
ぎょう	-11.234
▁foster	-11.234
▁importance	-11.234
▁armor	-11.2341
▁brave	-11.2341
囃子	-11.2342
▁improvement	-11.2342
競技	-11.2342
場合が多い	-11.2347
仕事	-11.235
located	-11.2351
▁Shigemori	-11.2351
▁1988	-11.2352
意味で	-11.2354
古今	-11.2357
にあって	-11.2358
パン	-11.2359
gatsu	-11.2365
が置かれ	-11.2366
栽培	-11.237
廊	-11.237
▁SAKANOUE	-11.237
傘	-11.237
該	-11.237
▁KATSURA	-11.237
企業	-11.2371
▁comment	-11.2371
▁suitable	-11.2372
▁dog	-11.2373
▁Hidetsugu	-11.2374
依頼	-11.2374
を重ね	-11.2379
通過	-11.238
出家し	-11.2381
商業	-11.2382
聞き	-11.2386
切れ	-11.2387
この時	-11.2388
▁1929	-11.2394
▁nun	-11.2396
役人	-11.2398
immediate	-11.24
▁Production	-11.24
乏	-11.24
▁Sukune	-11.24
▁したがって	-11.24
職人	-11.2402
に応じて	-11.2404
▁Shimogyo	-11.2405
▁discussion	-11.2407
back	-11.2408
明和	-11.2408
▁Jinmu	-11.2409
同様に	-11.2414
与えられた	-11.2415
▁Hot	-11.2417
すぐに	-11.2427
停	-11.2428
▁contain	-11.2429
▁dark	-11.243
▁IKEDA	-11.2431
▁sales	-11.2434
▁unified	-11.2435
かかる	-11.2435
極楽	-11.2436
▁animals	-11.2437
Kita	-11.2443
▁limit	-11.2443
▁Kaneie	-11.2445
産地	-11.2446
▁add	-11.2447
▁Suo	-11.2451
▁ratio	-11.2452
zume	-11.2458
嘆	-11.246
formal	-11.246
唄	-11.246
pseudonym	-11.246
▁rejected	-11.246
みょう	-11.246
倫	-11.246
puku	-11.2464
作法	-11.2465
られない	-11.2468
▁Goryo	-11.2468
▁1918	-11.2471
▁1995	-11.2475
▁insist	-11.2481
small	-11.2483
▁publication	-11.2484
ごく	-11.249
燃	-11.2491
buckwheat	-11.2491
▁HAYASHI	-11.2491
▁Yawata	-11.2491
▁Emishi	-11.2491
越前国	-11.2492
士族	-11.2492
ier	-11.2493
▁正室は	-11.2495
足利義満	-11.2495
部屋	-11.2496
最後	-11.2497
作曲	-11.2502
▁1943	-11.2505
残った	-11.2513
ひろ	-11.2515
▁staying	-11.2515
大宰府	-11.2521
▁KURODA	-11.2521
小田原	-11.2521
▁indicating	-11.2521
▁ladies	-11.2522
のもとで	-11.2522
を定め	-11.2522
鷹司	-11.2522
▁believers	-11.2523
▁possession	-11.2524
模様	-11.2524
一旦	-11.2527
項目	-11.2527
▁whereby	-11.2528
残っている	-11.253
細川氏	-11.2531
▁distinguish	-11.2534
訴え	-11.2537
▁expedition	-11.2537
▁citizens	-11.2538
▁Taku	-11.2539
あき	-11.255
買い	-11.255
乾燥	-11.2551
きっかけ	-11.2551
慧	-11.2551
径	-11.2551
▁composition	-11.2552
翻訳	-11.2552
を目指し	-11.2552
蔵人頭	-11.2555
▁collectively	-11.2557
広い	-11.2558
外国人	-11.2558
優れ	-11.2559
pil	-11.256
ony	-11.2561
▁trying	-11.2562
▁calling	-11.2563
▁wore	-11.2563
番目	-11.2563
公使	-11.2571
▁Asian	-11.2573
government	-11.2576
駒	-11.2578
▁Generally	-11.2579
▁considering	-11.2579
柴	-11.2582
厨	-11.2582
聖武天皇	-11.2582
粋	-11.2582
戯	-11.2582
▁burnt	-11.2582
▁estimated	-11.2582
▁fundoshi	-11.2582
裕	-11.2582
▁agreed	-11.2582
受け入れ	-11.2588
▁revealed	-11.2591
▁Yomei	-11.2592
▁Daitoku	-11.2593
Waka	-11.2595
▁nearly	-11.2596
近年では	-11.2599
▁promote	-11.26
▁1881	-11.2604
やかな	-11.2607
大型	-11.261
古墳時代	-11.2612
ホテル	-11.2613
▁consequently	-11.2613
▁philosophy	-11.2613
勃発	-11.2613
発祥	-11.2614
守護大名	-11.2618
大陸	-11.2619
鴨川	-11.262
限定	-11.262
▁Yoshitoki	-11.2621
▁Saemon	-11.2622
▁girls	-11.2623
じゃ	-11.2623
長岡	-11.2626
▁tanka	-11.2627
乗せ	-11.2628
堀川	-11.2628
描かれ	-11.2629
最終的に	-11.263
と見られる	-11.2632
進む	-11.2634
書かれ	-11.2636
トン	-11.264
▁Al	-11.2641
撤	-11.2643
尻	-11.2643
梵	-11.2644
▁declared	-11.2644
オー	-11.2646
▁Yoshiteru	-11.2647
▁eye	-11.2656
使う	-11.2656
pell	-11.2657
▁Minbu	-11.2664
Wo	-11.2673
琉球	-11.2674
堤	-11.2674
▁Interchange	-11.2674
▁prison	-11.2674
伺	-11.2675
を出す	-11.2675
系電車	-11.2676
菊池	-11.2676
▁ONOE	-11.2677
▁Ryukyu	-11.2677
▁Died	-11.2679
▁race	-11.268
廃止された	-11.2682
すら	-11.2685
この時代	-11.2685
松尾	-11.2687
太子	-11.2689
▁touch	-11.269
most	-11.2695
▁selling	-11.2698
獄	-11.2699
必ず	-11.2707
執筆	-11.2708
竹田	-11.2711
▁customers	-11.2711
悪化	-11.2712
▁repeatedly	-11.2712
出発	-11.2713
▁trace	-11.2713
▁decreased	-11.2714
Take	-11.2714
▁team	-11.2714
▁resided	-11.2715
長尾	-11.2718
▁1947	-11.2718
べく	-11.2719
▁implement	-11.2719
▁centered	-11.2721
▁Masamoto	-11.2723
番号	-11.2725
▁suggested	-11.273
支え	-11.273
Da	-11.2731
政治家	-11.2731
業者	-11.2732
▁Name	-11.2733
sauce	-11.2734
呂	-11.2734
触れ	-11.2736
誘	-11.2736
YANAGI	-11.2736
▁Railroad	-11.2736
▁accompaniment	-11.2736
▁conference	-11.2736
▁essential	-11.2736
▁expense	-11.2736
▁classics	-11.2737
▁fruit	-11.2737
獅子	-11.2738
が盛ん	-11.2738
▁indicate	-11.2738
Heian	-11.2739
酒屋	-11.2739
▁assassination	-11.2739
利益	-11.2739
▁Kanagawa	-11.2739
▁grow	-11.274
解散	-11.2741
主体	-11.2744
▁Yorinaga	-11.2745
例として	-11.2746
中島	-11.275
ることとなった	-11.275
master	-11.2751
意図	-11.2754
▁larger	-11.2754
門人	-11.2756
入内	-11.2761
も存在する	-11.2763
着物	-11.2764
▁partly	-11.2765
出自	-11.2765
童子	-11.2766
ケース	-11.2768
▁SANJO	-11.2768
▁confusion	-11.2768
▁valuable	-11.2768
▁Ibaraki	-11.2768
▁usage	-11.2768
利休	-11.277
ude	-11.2771
▁Region	-11.2771
没落	-11.2771
寄り	-11.2774
マー	-11.2778
▁creation	-11.2778
▁Kochi	-11.2779
載せ	-11.278
▁Takakuni	-11.2788
さき	-11.279
成人	-11.2795
<	-11.2799
佛	-11.2799
▁pronunciation	-11.2799
灌頂	-11.2799
▁profit	-11.2799
自己	-11.28
攻略	-11.28
▁reconstruction	-11.2801
▁Pu	-11.2801
推進	-11.2802
▁realized	-11.2806
related	-11.2807
▁draw	-11.2808
早世	-11.281
橋本	-11.281
書状	-11.282
分割	-11.2821
後者	-11.2826
箇	-11.2827
蒙	-11.283
▁Consequently	-11.283
孔	-11.283
箸	-11.283
▁pursue	-11.283
▁hanging	-11.2832
を与えられ	-11.2832
安永	-11.2833
▁referring	-11.2834
を攻め	-11.2834
伝授	-11.2834
乳母	-11.2835
▁smaller	-11.2839
重文	-11.2844
公事	-11.2847
▁OE	-11.2847
能力	-11.2847
▁hope	-11.2847
▁unable	-11.2847
Edo	-11.2851
宇多天皇	-11.2852
▁dream	-11.2862
▁jurisdiction	-11.2862
麦	-11.2862
cher	-11.2862
▁wait	-11.2862
撤退	-11.2862
相互	-11.2863
▁Board	-11.2863
▁Odawara	-11.2863
▁Iso	-11.2864
武力	-11.2864
太陽	-11.2865
▁1911	-11.2869
番線	-11.2869
違う	-11.287
▁Toshiie	-11.287
まつり	-11.2872
gle	-11.2874
▁1877	-11.2882
▁restore	-11.2882
備中	-11.2884
失われ	-11.2888
近畿	-11.2892
幕府軍	-11.2893
トンネル	-11.2893
アルコール	-11.2893
▁twice	-11.2893
とも言われている	-11.2893
機構	-11.2897
西部	-11.29
sake	-11.2901
勧め	-11.2902
▁Shonin	-11.2904
looking	-11.2905
自治	-11.2905
▁1998	-11.2906
沿	-11.2909
Miya	-11.2916
伽	-11.2925
泥	-11.2925
▁erected	-11.2925
出演	-11.2926
▁hakama	-11.2926
▁kosa	-11.2928
永享	-11.2928
注意	-11.2929
▁prefer	-11.293
▁reconstructed	-11.293
動物	-11.2931
▁thing	-11.2933
▁Togoku	-11.2936
大衆	-11.2936
を見る	-11.294
白川	-11.2947
ピー	-11.2951
訂	-11.2957
▁vicinity	-11.2957
lum	-11.2957
を学び	-11.2957
▁exempt	-11.2957
山陽	-11.2958
governor	-11.2959
▁See	-11.2959
いなかった	-11.2959
一条天皇	-11.2962
当然	-11.2962
長女	-11.2963
発売	-11.2965
▁Tenjin	-11.2969
▁jito	-11.2973
▁exhibit	-11.2978
らとともに	-11.2981
壊	-11.2987
▁confrontation	-11.2988
▁enacted	-11.2988
壮	-11.2988
ちゅう	-11.2988
悦	-11.2988
般若	-11.2989
兵力	-11.2989
▁mythology	-11.2989
義満	-11.2993
right	-11.2997
主要	-11.3
半島	-11.3004
譲り	-11.3008
七条	-11.3012
Fe	-11.3014
アジア	-11.3017
cribed	-11.3019
危	-11.302
看	-11.302
Establish	-11.302
▁French	-11.302
▁library	-11.302
▁numerous	-11.302
▁Pacific	-11.302
ジョ	-11.3021
を学ぶ	-11.3021
京都市右京区	-11.3021
交換	-11.3021
▁finger	-11.3021
わけではない	-11.3022
inspector	-11.3022
ダー	-11.3023
▁Naniwa	-11.3023
自身が	-11.3023
General	-11.3024
August	-11.3024
▁moving	-11.3025
▁Yoro	-11.3028
▁discussed	-11.303
占領	-11.303
無かった	-11.3031
inoge	-11.3034
▁Daikaku	-11.3034
茶碗	-11.3034
▁Mibu	-11.3037
えき	-11.3039
fold	-11.3041
コー	-11.3042
のもとに	-11.3042
Nishi	-11.3045
しげ	-11.3048
矩	-11.3052
続日本紀	-11.3052
稙	-11.3052
▁Building	-11.3052
▁flood	-11.3052
ヒメ	-11.3055
appointed	-11.3057
fune	-11.3058
を知る	-11.3059
読む	-11.3059
▁collapsed	-11.3064
▁Yoshitada	-11.3064
吉備	-11.307
▁exile	-11.3071
▁1900	-11.3073
▁sum	-11.3076
へ移	-11.3079
耕	-11.3083
飛鳥時代	-11.3083
多田	-11.3084
雀	-11.3084
戊辰戦争	-11.3084
寇	-11.3084
Amitabha	-11.3085
▁KANZE	-11.3085
▁manufacturing	-11.3085
棟梁	-11.3085
静岡県	-11.3085
▁Gold	-11.3085
▁perfect	-11.3085
トラ	-11.3086
駆け	-11.3091
固定	-11.3091
牧野	-11.3093
延宝	-11.3094
▁cloistered	-11.3095
▁1993	-11.3098
zake	-11.31
拡	-11.3106
stro	-11.3109
▁broth	-11.311
▁frame	-11.3117
烈	-11.3117
▁MIZUNO	-11.3117
▁Saionji	-11.3117
▁Jugoinojo	-11.3117
勧進	-11.3119
野菜	-11.3121
重盛	-11.3121
嵯峨野	-11.3123
Heike	-11.3126
▁detailed	-11.3132
名誉	-11.3134
水軍	-11.3134
を示し	-11.3135
比較	-11.3138
市内	-11.3139
認め	-11.3145
July	-11.3146
余り	-11.3146
を理由に	-11.3149
アメリカ合衆国	-11.3149
▁roughly	-11.3149
▁vessel	-11.3149
▁Women	-11.3149
かどうか	-11.3149
含まれる	-11.3149
位置づけ	-11.315
▁Campus	-11.315
▁Kanezane	-11.3152
▁通称は	-11.3154
▁moral	-11.3155
word	-11.3156
▁describe	-11.3156
久我	-11.3156
attendant	-11.3159
さま	-11.3163
が設けられ	-11.3164
▁1897	-11.3165
日本軍	-11.3168
するのは	-11.3173
元来	-11.3176
▁Wi	-11.3176
▁Higo	-11.3179
巧	-11.3182
渓	-11.3182
▁incense	-11.3182
▁welcome	-11.3182
▁Suzaku	-11.3182
▁sought	-11.3182
▁presence	-11.3182
掲載	-11.3182
▁SASAKI	-11.3182
抜き	-11.3183
参拝	-11.3185
深草	-11.3186
▁favored	-11.3187
御陵	-11.3188
扱われ	-11.3192
した際に	-11.3192
改良	-11.3193
期待	-11.3195
hitsu	-11.3198
の前身	-11.3204
丹後国	-11.3206
▁1925	-11.3209
▁utensils	-11.3211
▁seasoning	-11.3212
恨	-11.3214
三重県	-11.3214
操	-11.3214
▁abroad	-11.3214
▁patron	-11.3214
億	-11.3214
▁hung	-11.3214
大徳寺	-11.3215
Yamato	-11.3216
品種	-11.3216
▁underground	-11.3217
▁wealthy	-11.3217
忠実	-11.3218
第四	-11.3222
Period	-11.3222
蘭学	-11.3223
を超え	-11.3225
ーション	-11.3225
▁Site	-11.3226
▁coup	-11.3234
同士	-11.3235
配下	-11.3236
東軍	-11.3238
bachi	-11.3238
親子	-11.3239
菅	-11.3244
作家	-11.3245
旋	-11.3247
▁argument	-11.3247
▁confined	-11.3247
▁apparent	-11.3247
▁steward	-11.3247
寵愛	-11.3247
▁mourn	-11.3247
▁mistake	-11.3249
を継承し	-11.325
ろく	-11.3253
April	-11.3256
▁1951	-11.326
wear	-11.3262
cut	-11.3268
醍醐寺	-11.3271
剥	-11.328
屈	-11.328
葵	-11.328
奔	-11.328
▁Tachibana	-11.328
▁supreme	-11.328
店舗	-11.328
▁worse	-11.328
▁resistance	-11.3281
徴収	-11.3281
稲葉	-11.3282
▁curry	-11.3282
近衛府	-11.3283
▁Era	-11.3284
▁quarters	-11.3285
記す	-11.329
▁kana	-11.3292
十九	-11.3292
従来	-11.3293
茶室	-11.3295
機会	-11.3295
▁1885	-11.3301
といって	-11.3303
▁Naru	-11.3304
スク	-11.3305
ぜん	-11.3309
松井	-11.331
supporters	-11.3311
交差点	-11.3313
▁entrusted	-11.3313
清和源氏	-11.3313
叙爵	-11.3313
詳しく	-11.3313
斎宮	-11.3313
▁peak	-11.3313
▁Qu	-11.3314
▁raid	-11.3314
▁Yamazaki	-11.3314
内藤	-11.3314
綾部	-11.3315
......	-11.3316
▁fair	-11.3318
▁observed	-11.3319
トル	-11.332
▁Nii	-11.332
Assistant	-11.3323
feudal	-11.3323
▁Sino	-11.3324
しろ	-11.3325
復元	-11.3326
事例	-11.3326
▁1994	-11.3327
▁Kenmu	-11.3329
▁Hachijo	-11.3329
せられた	-11.3331
この地	-11.3333
禁じ	-11.3334
▁girl	-11.3335
と言い	-11.3335
▁successful	-11.3337
▁manage	-11.3337
目録	-11.334
働	-11.3341
kaze	-11.3342
サー	-11.3345
凡	-11.3345
に基づいて	-11.3346
襖	-11.3346
▁absorb	-11.3346
▁ISHIKAWA	-11.3346
▁Asakura	-11.3346
▁sitting	-11.3346
購入	-11.3346
羽柴	-11.3346
What	-11.3347
▁Sumiyoshi	-11.3348
飛び	-11.335
▁acid	-11.3353
▁Chang	-11.3353
▁Tandai	-11.3353
national	-11.336
八条	-11.3362
会員	-11.3364
本社	-11.3364
最終	-11.3365
▁keeping	-11.3372
本多	-11.3377
▁chicken	-11.3379
猿楽	-11.338
ゃ	-11.3381
▁march	-11.3382
没収	-11.3382
rous	-11.3383
経験	-11.3384
太田	-11.3385
tsugi	-11.3385
▁Russian	-11.3387
小さな	-11.3389
▁semi	-11.3389
phy	-11.339
入学	-11.3391
▁Jokyu	-11.3391
根本	-11.3393
正徳	-11.3393
播磨	-11.3393
lord	-11.3393
▁KITA	-11.34
建てられた	-11.3404
死者	-11.3409
明応	-11.3411
泊	-11.3411
坪	-11.3412
化粧	-11.3412
扉	-11.3412
▁Commerce	-11.3412
▁KUSUNOKI	-11.3412
▁approval	-11.3412
▁seppuku	-11.3412
瓶	-11.3412
▁beyond	-11.3412
▁contest	-11.3412
曹	-11.3412
▁fiction	-11.3412
▁ownership	-11.3413
▁Th	-11.3414
と言って	-11.3415
に移り	-11.3415
ダム	-11.3415
▁Taishogun	-11.3417
▁bag	-11.342
庶流	-11.3421
mountain	-11.3425
▁Joi	-11.3427
保持	-11.3428
下級	-11.3429
▁Heiji	-11.3431
中止	-11.3433
▁Mata	-11.344
西国	-11.3441
翌年には	-11.3441
工場	-11.3443
委	-11.3444
立てた	-11.3444
〜	-11.3445
吟	-11.3445
▁Continued	-11.3445
▁calligraphic	-11.3445
宛	-11.3445
足利氏	-11.3447
▁Color	-11.3448
▁launched	-11.3452
下野国	-11.3453
職務	-11.3457
▁pure	-11.3457
を図る	-11.3458
集中	-11.3466
▁connect	-11.347
▁privilege	-11.3475
▁1930	-11.3479
▁emerged	-11.3479
▁withdraw	-11.3479
一体	-11.348
京都大学	-11.3482
▁payment	-11.3485
実質	-11.3488
と呼んで	-11.3488
▁Jitsu	-11.3489
5000	-11.3491
法親王	-11.3491
Hei	-11.3492
▁IWA	-11.3493
September	-11.3493
近い	-11.3493
▁growing	-11.3496
▁1874	-11.3496
昼	-11.3502
▁Akashi	-11.3505
▁posthumously	-11.3506
兼任	-11.351
持統天皇	-11.3512
斗	-11.3512
晋	-11.3512
▁YAMAMOTO	-11.3512
えない	-11.3513
その他	-11.3515
正四位下	-11.3515
できず	-11.3515
chome	-11.3518
▁Nobutada	-11.3519
激しく	-11.352
inter	-11.3522
town	-11.3522
演目	-11.3524
と称された	-11.3524
松竹	-11.3528
▁abolish	-11.3529
▁1180	-11.3537
実力	-11.3537
▁guarded	-11.354
▁Tsuruga	-11.3541
bune	-11.3543
▁virtue	-11.3546
粟	-11.3546
▁stall	-11.3546
と言える	-11.3546
▁expelled	-11.3547
東海	-11.3547
▁Chuo	-11.3547
淡路	-11.3547
▁Part	-11.3551
将来	-11.3551
making	-11.3554
Bi	-11.356
Kawa	-11.356
定員	-11.3561
November	-11.3562
October	-11.3562
毛利氏	-11.3567
出家して	-11.357
双方	-11.3571
踊り	-11.3571
▁clo	-11.3572
儀礼	-11.3575
▁wet	-11.3578
次いで	-11.3578
蛇	-11.358
諏訪	-11.358
▁Development	-11.358
▁KATAOKA	-11.358
▁categorized	-11.358
神武天皇	-11.358
▁convey	-11.358
▁danger	-11.358
▁IWAKURA	-11.358
旅団	-11.3582
▁flag	-11.3583
並ぶ	-11.3584
▁Takamatsu	-11.3595
▁inherit	-11.3596
下記の	-11.3596
小判	-11.3598
refer	-11.3606
することとなった	-11.3612
しばらく	-11.3614
ヤマト王権	-11.3614
▁responsibility	-11.3614
▁critical	-11.3614
が挙げられる	-11.3614
村上天皇	-11.3614
▁bodies	-11.3614
▁nearby	-11.3615
▁Awaji	-11.3615
分裂	-11.3616
真田	-11.3616
▁Saitama	-11.3617
立憲	-11.3621
戦った	-11.3622
▁roju	-11.3625
Be	-11.3625
▁1944	-11.3627
▁affected	-11.3628
▁Goro	-11.3628
▁seem	-11.3628
▁1920	-11.3628
務め	-11.3629
Heishi	-11.3636
らぬ	-11.3638
定義	-11.3639
抜け	-11.364
敷地	-11.3644
来る	-11.3645
▁fat	-11.3645
案内	-11.3646
環	-11.3647
塞	-11.3648
平城京	-11.3648
殖	-11.3648
肖	-11.3648
▁Misasagi	-11.3648
▁vehicle	-11.3648
▁demoted	-11.3648
▁bills	-11.3648
排除	-11.3648
当たり	-11.3652
ることになった	-11.3652
トロ	-11.3652
述べている	-11.3653
推定	-11.3653
十四	-11.3655
▁Monjo	-11.3661
脱出	-11.3664
なので	-11.3666
に代わって	-11.3674
が増え	-11.3677
に加え	-11.368
枕	-11.3682
升	-11.3682
貼	-11.3682
挿	-11.3682
篭	-11.3682
decorative	-11.3682
▁brigade	-11.3682
▁environment	-11.3682
▁exercise	-11.3682
▁expansion	-11.3682
鳳	-11.3682
▁descendent	-11.3682
溶	-11.3682
▁Kawaramachi	-11.3683
晩	-11.3683
▁Fuyu	-11.3683
▁Ikoma	-11.3684
▁please	-11.3684
▁Nikki	-11.3684
区域	-11.3688
頼長	-11.3688
▁OISHI	-11.3691
▁1904	-11.3692
▁destroy	-11.3699
常陸	-11.37
assistant	-11.3701
と呼び	-11.3702
締め	-11.3703
書写	-11.3705
からなる	-11.3706
kabe	-11.3707
含む	-11.3711
史上	-11.3713
ぼう	-11.3714
褌	-11.3716
悩	-11.3716
菌	-11.3716
▁banished	-11.3716
▁cultivation	-11.3716
▁presumed	-11.3716
ようやく	-11.3716
弔	-11.3716
▁inscribed	-11.3717
今川氏	-11.3718
posed	-11.3718
怒り	-11.3722
off	-11.3723
▁extra	-11.3725
▁successfully	-11.3726
源義経	-11.373
▁->	-11.3732
▁formerly	-11.3733
large	-11.3734
りん	-11.3735
Koku	-11.3744
に通じ	-11.3745
▁shoulder	-11.3747
▁commenced	-11.375
▁conventional	-11.375
▁climb	-11.375
▁Zeami	-11.3751
▁trusted	-11.3751
普請	-11.3751
▁Che	-11.3752
▁HINO	-11.3753
継続	-11.3753
宮廷	-11.3753
▁seat	-11.3754
が起こる	-11.3757
建仁	-11.3757
▁Having	-11.3757
開祖	-11.376
と記されている	-11.376
resident	-11.376
さら	-11.3761
諸大名	-11.3761
発展した	-11.3762
首都	-11.3762
▁1991	-11.3763
もなく	-11.3764
を命じられ	-11.3765
▁Miyako	-11.3766
たん	-11.3768
に仕える	-11.3769
▁1862	-11.377
嵐	-11.3771
権現	-11.3773
クロ	-11.3773
石器	-11.3774
このとき	-11.3784
▁Hundred	-11.3785
▁converted	-11.3785
▁familiar	-11.3785
胴	-11.3785
芝居	-11.3786
▁syn	-11.3788
▁kugyo	-11.3791
玉葉	-11.3791
連れ	-11.3794
▁improved	-11.3795
▁Yoshiharu	-11.3795
男女	-11.3799
大宝	-11.3804
▁participate	-11.3806
Ministry	-11.3807
噂	-11.3819
モデル	-11.3819
滑	-11.3819
長野県	-11.3819
▁comprise	-11.3819
▁dissolved	-11.3819
▁enthroned	-11.3819
Gyokuyo	-11.3819
▁false	-11.3819
▁threat	-11.3819
▁Shoshiinoge	-11.382
しんのう	-11.382
甲斐国	-11.3821
ウェ	-11.3822
従四位上	-11.3823
答え	-11.3824
▁Munemori	-11.3827
▁Masashige	-11.3828
▁1912	-11.3828
▁1955	-11.3835
▁Kengyo	-11.3835
建長	-11.3835
完成した	-11.3842
わせる	-11.3845
叙位	-11.3846
board	-11.3848
▁precinct	-11.3849
暮	-11.3851
黙	-11.3854
apprentice	-11.3854
推古天皇	-11.3854
▁Dajokan	-11.3854
スサノオ	-11.3854
▁Ikeda	-11.3854
触	-11.3854
を構え	-11.3855
東側	-11.3857
祀られている	-11.3857
を祖とする	-11.3858
加茂	-11.3859
会館	-11.3861
奉公	-11.3863
方式	-11.3866
ようとした	-11.3866
土器	-11.3867
これも	-11.3869
▁farming	-11.388
level	-11.3883
▁Class	-11.3884
正五位下	-11.3889
▁uniform	-11.3889
▁Until	-11.3889
▁benefit	-11.3889
▁providing	-11.3889
▁substitute	-11.3889
▁physical	-11.3889
ソース	-11.3889
元亀	-11.3889
越え	-11.3892
▁Fumi	-11.3893
gaoka	-11.3894
▁cook	-11.3895
歴史的	-11.3895
▁Asano	-11.3897
と呼ばれている	-11.3897
▁Tate	-11.3898
ならない	-11.3899
▁2009	-11.3899
▁Zui	-11.3899
ィ	-11.3901
▁1986	-11.3904
Important	-11.3913
武道	-11.3919
を変え	-11.3921
▁buy	-11.3921
紹	-11.3923
餡	-11.3924
翼	-11.3924
▁lunch	-11.3924
▁technology	-11.3924
和歌山県	-11.3924
▁nenbutsu	-11.3924
▁losing	-11.3924
巫女	-11.3925
▁spiritual	-11.3925
▁counted	-11.3925
▁viewpoint	-11.3925
会津藩	-11.3926
に努め	-11.3927
戸籍	-11.3928
▁covering	-11.3929
▁lose	-11.393
藤原道長	-11.3933
幕政	-11.3935
▁core	-11.3938
に任じられる	-11.3939
▁1985	-11.3941
どり	-11.3943
Higashi	-11.3949
西側	-11.3951
▁classes	-11.3953
▁Muraji	-11.3955
ともいわれる	-11.3959
▁Bicchu	-11.3959
▁enforced	-11.3959
▁necessarily	-11.3959
▁surprise	-11.3959
▁permanent	-11.3959
▁warehouse	-11.3959
▁invented	-11.3959
遺構	-11.396
▁favorite	-11.396
軌道	-11.3962
兼家	-11.3962
されない	-11.3964
▁Area	-11.3964
▁Dazaifu	-11.3965
phone	-11.3965
特色	-11.3967
有力な	-11.3967
▁Kobun	-11.3975
▁1942	-11.3975
▁prohibit	-11.3977
▁preach	-11.3977
旧制	-11.399
られるようになった	-11.3993
迷	-11.3994
孤	-11.3994
ドラマ	-11.3994
萩	-11.3994
▁accident	-11.3994
▁neither	-11.3994
▁wrong	-11.3994
はっきり	-11.3994
と呼んだ	-11.3994
▁blind	-11.3994
▁Ayabe	-11.3994
▁knew	-11.3994
亡くなった	-11.3995
を学んだ	-11.3995
ものが多い	-11.3998
south	-11.3999
▁characterized	-11.4
▁delivered	-11.4005
発着	-11.4009
委員会	-11.401
▁hunting	-11.401
進んだ	-11.401
学術	-11.401
▁1887	-11.4013
免許	-11.4014
▁Miyake	-11.4014
この事件	-11.4014
water	-11.4014
▁assume	-11.4018
出羽	-11.4019
さず	-11.402
旦	-11.4022
▁1923	-11.4024
騒	-11.4028
ゆき	-11.4028
▁Public	-11.403
▁Imadegawa	-11.403
▁resource	-11.403
▁suspended	-11.403
正式な	-11.403
▁kabane	-11.403
と改名	-11.403
▁SATO	-11.403
▁Chinju	-11.4033
fine	-11.4034
▁parent	-11.4034
▁daytime	-11.4036
どん	-11.4037
定期	-11.4039
に関して	-11.404
東洋	-11.4044
布教	-11.4045
子爵	-11.4047
▁expand	-11.4048
▁fully	-11.4052
教団	-11.4053
▁Home	-11.4054
ographic	-11.4056
名所	-11.4061
Kami	-11.4063
Bun	-11.4064
phe	-11.4064
困	-11.4064
前方後円墳	-11.4065
▁Graduate	-11.4065
▁locomotive	-11.4065
▁carved	-11.4065
を置く	-11.4066
和睦	-11.4066
を代表する	-11.4066
▁recommendation	-11.4067
財産	-11.4068
恐	-11.4068
約束	-11.4068
従兄弟	-11.4068
良く	-11.4069
高橋	-11.407
塗り	-11.4073
ことはなかった	-11.4076
考え方	-11.4079
育て	-11.408
▁loss	-11.408
manor	-11.4083
改めて	-11.4084
女王	-11.4085
▁1886	-11.4086
影響力	-11.4087
ひとつ	-11.409
付けられた	-11.4091
▁Jisho	-11.4097
であれば	-11.4097
閥	-11.41
廉	-11.4101
▁entitled	-11.4101
▁contact	-11.4101
▁historian	-11.4101
▁tactic	-11.4101
庇護	-11.4101
国府	-11.4101
消息	-11.4101
福岡県	-11.4102
▁mask	-11.4102
▁Peers	-11.4102
教義	-11.4103
Ei	-11.4104
世阿弥	-11.4105
北側	-11.4108
始める	-11.4109
まん	-11.4112
嫡	-11.4115
▁retreated	-11.4117
▁Senju	-11.4117
▁sheet	-11.412
▁1899	-11.4121
結城	-11.4133
兆	-11.4136
太平記	-11.4136
▁resist	-11.4136
▁山号は	-11.4136
ぱ	-11.4136
▁SUGI	-11.4136
風土記	-11.4136
危険	-11.4136
労働	-11.4136
貢献	-11.4137
埋葬	-11.4137
▁printing	-11.4137
が主流	-11.414
▁choja	-11.4141
蒲生	-11.4142
▁Yorimichi	-11.4143
つね	-11.4144
▁KANO	-11.4145
組合	-11.4148
▁Machi	-11.415
▁1888	-11.4155
▁Hatsu	-11.4156
▁hunt	-11.4156
二条城	-11.4157
一帯	-11.4161
▁monjo	-11.4163
▁1927	-11.4167
摂関	-11.417
×	-11.4172
偏	-11.4172
核	-11.4172
▁automatic	-11.4172
▁enemies	-11.4172
▁wrestler	-11.4172
▁extent	-11.4172
▁Work	-11.4172
▁Preservation	-11.4173
▁Horse	-11.4173
カル	-11.4173
高槻	-11.4176
明け	-11.4176
御殿	-11.4176
ひら	-11.4178
▁その結果	-11.418
▁Totomi	-11.4183
遅れ	-11.4183
方形	-11.4185
▁exit	-11.4189
kku	-11.419
▁1891	-11.4191
▁Taishi	-11.4191
を挙げた	-11.4192
後白河天皇	-11.4194
盆地	-11.4199
みず	-11.42
▁England	-11.4208
▁IMAGAWA	-11.4208
▁celebration	-11.4208
▁consult	-11.4208
▁deprived	-11.4208
▁About	-11.4208
租税	-11.4209
門徒	-11.4217
鎮守	-11.4217
離宮	-11.4217
加藤	-11.4221
斬り	-11.4221
天慶	-11.4223
各国	-11.4228
▁operate	-11.4231
司法	-11.4236
みち	-11.424
History	-11.4242
ZA	-11.4243
弼	-11.4244
掃	-11.4244
▁dominant	-11.4244
▁instructor	-11.4244
▁recruit	-11.4244
▁withdrew	-11.4244
▁Ecchu	-11.4244
北近畿タンゴ鉄道	-11.4244
選択	-11.4244
なければならない	-11.4244
2004	-11.4245
▁promise	-11.4245
▁seii	-11.4245
▁merit	-11.4245
▁regardless	-11.4245
established	-11.4246
▁Tensho	-11.4246
題材	-11.4247
▁riot	-11.4247
tax	-11.4253
▁harm	-11.4253
▁Yorimasa	-11.4254
宗盛	-11.4254
半ば	-11.4257
宝亀	-11.4257
▁1896	-11.4262
Le	-11.4264
逃	-11.4265
と対立し	-11.4266
▁traveled	-11.4267
割り	-11.4269
鼻	-11.428
甚	-11.428
祓	-11.428
▁complex	-11.4281
運賃	-11.4281
▁graduated	-11.4281
▁vow	-11.4282
夫婦	-11.4282
に至って	-11.4282
進め	-11.4282
▁careful	-11.4282
類似	-11.4283
駅舎	-11.4283
SAKI	-11.4285
木津川	-11.4286
沿い	-11.4289
▁Eizan	-11.4289
▁Toyama	-11.4291
捉え	-11.4294
▁prepare	-11.4304
ないこと	-11.4305
Man	-11.4311
語源	-11.4313
否	-11.4314
疏	-11.4317
下京区	-11.4317
▁ASANO	-11.4317
▁excavation	-11.4317
檀	-11.4317
▁raising	-11.4317
▁MIURA	-11.4318
▁week	-11.4318
入った	-11.432
洞院	-11.4324
Taira	-11.4329
▁diver	-11.433
▁1972	-11.4331
▁1948	-11.4333
▁tied	-11.4333
政党	-11.4336
wari	-11.4341
vat	-11.4349
均	-11.4349
▁Bay	-11.435
拾	-11.4353
そもそも	-11.4353
倣	-11.4353
▁Shogoinoge	-11.4353
貴重な	-11.4353
彫刻	-11.4354
ではあるが	-11.4354
描写	-11.4354
総督	-11.4355
nuki	-11.4356
少輔	-11.4356
fuda	-11.4357
ないため	-11.4357
最上	-11.4359
尽く	-11.436
崩れ	-11.436
郡司	-11.4372
台頭	-11.4372
を使って	-11.4377
▁detail	-11.4378
異説	-11.438
▁strict	-11.438
pear	-11.4381
高級	-11.4384
動員	-11.4389
惑	-11.439
▁Elementary	-11.439
▁atmosphere	-11.439
▁candidate	-11.439
▁switch	-11.439
▁vinegar	-11.439
▁worth	-11.439
に始まる	-11.439
▁GOTO	-11.439
仁和寺	-11.439
▁Hisahide	-11.439
▁Shochiku	-11.439
▁voice	-11.439
refined	-11.439
移住	-11.4391
pper	-11.4394
▁proper	-11.4394
駿河	-11.4395
▁acquired	-11.4395
alternate	-11.4396
やはり	-11.4396
八郎	-11.4399
▁karate	-11.44
京極高	-11.44
▁gathering	-11.4403
であっても	-11.4403
ゆう	-11.4406
▁Kubo	-11.4408
万円	-11.441
▁1879	-11.4414
Kyu	-11.4414
高島	-11.4415
およそ	-11.4417
▁hat	-11.4423
上野国	-11.4424
実在	-11.4425
を起こした	-11.4425
▁puppet	-11.4427
▁twelfth	-11.4427
終了	-11.4428
皇居	-11.4431
工芸	-11.4432
紀伊国	-11.4433
陰陽道	-11.4435
gake	-11.4435
倒れ	-11.4439
空間	-11.4443
十七	-11.4443
使用された	-11.4448
Gi	-11.445
III	-11.4451
WARA	-11.4451
金銀	-11.4454
出雲国	-11.4455
を与える	-11.4458
に叙され	-11.4461
髷	-11.4463
鵜	-11.4464
▁confiscated	-11.4464
▁failure	-11.4464
▁strategy	-11.4464
▁Hanazono	-11.4464
samurai	-11.4465
▁creating	-11.4466
居士	-11.447
住居	-11.447
とはいえ	-11.4471
▁Now	-11.4471
業務	-11.4473
発酵	-11.4474
▁1905	-11.4474
と言った	-11.4475
中臣	-11.4479
▁wakashu	-11.4486
鎌倉時代初期	-11.4486
▁arrive	-11.4487
▁damaged	-11.4488
▁Yaku	-11.4493
立った	-11.4493
梨	-11.4501
庸	-11.4501
楠木正	-11.4501
サービス	-11.4501
▁sightseeing	-11.4501
Picture	-11.4501
弾圧	-11.4501
▁True	-11.4502
▁President	-11.4502
恩賞	-11.4502
岡山県	-11.4502
▁Germany	-11.4505
▁prize	-11.4505
▁Vice	-11.4506
▁fast	-11.4508
▁majority	-11.451
▁Sutoku	-11.4513
これまで	-11.4513
収集	-11.4513
▁Tenshu	-11.4514
ッチ	-11.4514
絶え	-11.4514
▁Seimei	-11.4514
半分	-11.4515
▁separately	-11.4516
のなかで	-11.452
電化	-11.4522
track	-11.4527
▁steamed	-11.4527
詣	-11.4537
雇	-11.4538
蕉	-11.4538
秩序	-11.4538
▁industrial	-11.4538
▁burning	-11.4538
▁sharp	-11.4538
▁preservation	-11.4538
を失った	-11.4538
因幡	-11.4539
安堵	-11.4539
ジェ	-11.454
中華	-11.454
立太子	-11.4541
皇統	-11.4541
勅使	-11.4543
▁Naomasa	-11.4544
▁cool	-11.4546
▁sango	-11.4549
関係者	-11.455
ことができる	-11.455
東京大学	-11.4551
金沢	-11.4559
僧都	-11.456
見られた	-11.4569
マイ	-11.4569
後継	-11.4569
滞	-11.4574
杵	-11.4575
狙	-11.4575
を遂げ	-11.4575
Defense	-11.4575
▁NITTA	-11.4575
▁engineer	-11.4575
▁paternal	-11.4575
枠	-11.4575
を開いた	-11.4576
▁stating	-11.4576
連盟	-11.4577
▁Kagekatsu	-11.4578
支給	-11.4578
rance	-11.4579
参戦	-11.4583
標高	-11.4585
▁strictly	-11.4585
御霊	-11.4586
▁shifted	-11.4587
させること	-11.4592
なぎ	-11.4595
▁Keishin	-11.4595
三宅	-11.4599
▁exam	-11.4603
を起こし	-11.4604
尽	-11.4605
取引	-11.4605
撮影	-11.4609
を建立し	-11.461
▁suppressed	-11.4611
通説	-11.4612
侯	-11.4612
疎	-11.4613
グループ	-11.4613
宮内庁	-11.4613
ISBN	-11.4613
▁equipped	-11.4613
▁fundamental	-11.4613
巌	-11.4613
緊	-11.4613
▁Russo	-11.4613
元治元年	-11.4613
▁thread	-11.4613
の末裔	-11.4613
▁Chikuzen	-11.4616
▁eleventh	-11.4617
壁画	-11.4618
規制	-11.4618
方丈	-11.462
▁grown	-11.4621
▁OTA	-11.4621
キロ	-11.4623
金属	-11.4625
換え	-11.4625
▁monme	-11.4627
テン	-11.4627
▁Sake	-11.463
明王	-11.4633
添え	-11.4635
▁catch	-11.4635
▁Shinbun	-11.4637
に就任した	-11.4638
仰	-11.4647
ファ	-11.4648
吸	-11.465
檜	-11.465
日露戦争	-11.465
Lieutenant	-11.465
▁Ogasawara	-11.465
▁occupation	-11.465
▁poison	-11.465
▁prominent	-11.465
▁railroad	-11.465
▁recognition	-11.465
▁causing	-11.465
▁potato	-11.465
浮世絵	-11.465
Taiheiki	-11.465
こちら	-11.465
▁NOMURA	-11.465
▁mansion	-11.4651
▁Biography	-11.4651
さない	-11.4652
旅客	-11.4653
歳で死去	-11.4653
▁item	-11.4653
と伝わる	-11.4654
▁Ason	-11.4654
以下のように	-11.4654
▁Guard	-11.4655
Bureau	-11.4656
▁Gei	-11.466
八幡宮	-11.466
六角氏	-11.4666
hyaku	-11.4667
舎人	-11.4669
owned	-11.4673
鮮	-11.4679
ことが多く	-11.4684
▁additionally	-11.4685
HI	-11.4687
▁statement	-11.4687
措置	-11.4688
蓄	-11.4688
牟	-11.4688
穏	-11.4688
▁liquor	-11.4688
▁unusual	-11.4688
擬	-11.4688
▁wrapped	-11.4688
専門学校	-11.4689
選挙	-11.469
詠んだ	-11.4691
京田辺	-11.4691
京阪バス	-11.4692
gasa	-11.4694
作られる	-11.4698
てくる	-11.4699
脚本	-11.47
選定	-11.4702
死んだ	-11.4702
▁1965	-11.4705
▁golden	-11.4706
用意	-11.4707
発言	-11.4707
さだ	-11.4707
▁celebrate	-11.4713
▁collapse	-11.4713
怒	-11.4719
駿河国	-11.4721
浪人	-11.4722
戚	-11.4724
丞	-11.4724
終わった	-11.4725
communication	-11.4726
▁election	-11.4726
▁equipment	-11.4726
▁esoteric	-11.4726
▁smooth	-11.4726
Deputy	-11.4726
wheel	-11.4726
斜	-11.4726
▁protest	-11.4726
▁task	-11.4726
太秦	-11.4727
男爵	-11.4727
受賞	-11.4728
次のように	-11.4728
であって	-11.4728
SAI	-11.4731
▁chigyo	-11.4732
Naka	-11.4738
確か	-11.4742
▁Tofuku	-11.4744
▁rarely	-11.4745
▁Tri	-11.4749
だん	-11.4752
▁retreat	-11.4752
重ね	-11.4755
▁donation	-11.4762
攘夷	-11.4764
園城寺	-11.4764
炎	-11.4764
釣	-11.4764
▁Kebiishi	-11.4764
▁monarch	-11.4764
▁tendency	-11.4764
京都市東山区	-11.4764
▁ISHIDA	-11.4764
佐藤	-11.4764
推測	-11.4764
▁multiple	-11.4764
(1869	-11.4765
どこ	-11.4765
千葉県	-11.4765
態度	-11.4766
▁birthplace	-11.4766
▁Out	-11.4769
▁grass	-11.4769
文様	-11.477
▁Katsumoto	-11.477
宣言	-11.4772
▁tip	-11.4776
本拠地	-11.4776
モン	-11.4777
旅行	-11.4777
▁hour	-11.4778
▁respected	-11.4778
▁1185	-11.4783
出世	-11.4784
当駅	-11.4784
執事	-11.4784
Honcho	-11.4786
南方	-11.4788
ことも多い	-11.4792
▁temp	-11.4802
揃	-11.4802
勾	-11.4802
班	-11.4802
團	-11.4802
徹底	-11.4802
▁SAKAI	-11.4802
▁interpreted	-11.4802
討たれ	-11.4803
▁battlefield	-11.4803
府県	-11.4803
▁Sumitomo	-11.4803
の養女	-11.4807
存在しない	-11.4807
翌日	-11.4809
障	-11.4815
越後国	-11.4815
判明	-11.4817
醍醐天皇	-11.482
HASHI	-11.4821
▁couple	-11.4823
ワー	-11.4824
▁Kanei	-11.4826
松平家	-11.4827
落とし	-11.4827
▁Ninna	-11.4833
▁shoot	-11.4834
君主	-11.4837
福井県	-11.484
主人公	-11.484
デザイン	-11.484
▁earthenware	-11.484
▁generated	-11.484
▁separation	-11.484
巣	-11.484
契機	-11.4841
▁solid	-11.4841
▁regain	-11.4841
▁renga	-11.4841
倒幕	-11.4842
紅葉	-11.4842
▁Mandokoro	-11.4842
▁Fushiminomiya	-11.4846
岡崎	-11.4847
営業所	-11.4848
現実	-11.4852
を形成し	-11.4853
▁Yi	-11.4858
大内氏	-11.486
を授け	-11.4863
移行	-11.4868
哲	-11.4868
▁Basho	-11.4869
yang	-11.4874
慮	-11.4878
挟	-11.4878
急速に	-11.4879
▁speech	-11.4879
▁cloud	-11.4879
衝突	-11.4879
▁save	-11.4884
▁seized	-11.4884
不可	-11.4884
につれ	-11.4885
広まった	-11.4886
とも言う	-11.489
塔頭	-11.489
▁Yorimori	-11.4891
▁basin	-11.4896
開基	-11.4897
実務	-11.4905
上杉氏	-11.4916
▁Hikaru	-11.4917
粒	-11.4917
▁county	-11.4918
承久の乱	-11.4918
に伴う	-11.4918
▁governance	-11.4919
▁Nitta	-11.492
▁abdicated	-11.4922
使われている	-11.4924
久世	-11.4926
自動	-11.4927
薬師寺	-11.4929
住み	-11.4932
▁Like	-11.4933
▁Sakurai	-11.4934
再開	-11.4943
南都	-11.4944
Zen	-11.4945
に位置し	-11.4953
行列	-11.4954
陥	-11.4955
▁Usa	-11.4956
呈	-11.4956
▁cotton	-11.4956
▁tatami	-11.4956
▁honorific	-11.4956
雁	-11.4956
▁Honnoji	-11.4956
独占	-11.4957
▁Keifuku	-11.4961
彦根	-11.4962
▁Former	-11.4963
▁researchers	-11.4963
▁かつては	-11.4964
うま	-11.4965
coat	-11.4965
chiken	-11.4966
kotoba	-11.4968
下賜	-11.4969
低下	-11.497
▁Takechi	-11.4977
養父	-11.498
神戸市	-11.4989
針	-11.4992
烏	-11.4994
システム	-11.4995
弥勒	-11.4995
▁drew	-11.4995
▁horizontal	-11.4995
▁ordinance	-11.4995
鳩	-11.4995
▁adapt	-11.4995
▁nurse	-11.4995
(1871	-11.4995
▁Men	-11.4996
となっており	-11.4997
近臣	-11.5002
▁growth	-11.5003
▁Nohgaku	-11.5006
read	-11.5009
忘れ	-11.5009
▁1953	-11.501
南側	-11.5016
信じ	-11.5021
▁understanding	-11.5022
らせた	-11.5023
乗り入れ	-11.5026
にあたって	-11.5027
▁Wei	-11.5031
俳	-11.5033
聴	-11.5034
陳	-11.5034
▁Commission	-11.5034
▁MAKINO	-11.5034
▁concentrate	-11.5034
▁banquet	-11.5034
musubi	-11.5034
▁wild	-11.5034
警備	-11.5035
地下鉄	-11.5036
ぜられ	-11.5037
江戸時代前期	-11.5038
▁Noriyori	-11.504
遊び	-11.5041
▁Takatsuki	-11.5043
▁Jiro	-11.5045
▁1908	-11.5047
主演	-11.5048
▁Yoshitsugu	-11.505
突き	-11.5052
▁Amago	-11.5053
姫命	-11.5055
je	-11.5065
Historic	-11.5072
たびたび	-11.5073
棺	-11.5073
啓	-11.5073
Shakyamuni	-11.5073
▁admitted	-11.5073
▁Saburo	-11.5073
▁Controller	-11.5073
▁prime	-11.5074
にわたり	-11.5074
筑紫	-11.5074
▁apply	-11.5074
長浜	-11.5074
待遇	-11.5074
▁Unlike	-11.5075
ZUMI	-11.5075
▁Dainichi	-11.5076
弓矢	-11.5077
▁formally	-11.5079
▁Yasutoki	-11.5079
▁sixty	-11.5081
使われた	-11.5089
上杉家	-11.5091
▁Hida	-11.5095
を命じ	-11.5101
戦時	-11.5102
訪問	-11.5103
▁thinking	-11.5108
▁publish	-11.5109
▁ultimate	-11.5113
允	-11.5113
▁Justice	-11.5113
▁SUZUKI	-11.5113
▁respond	-11.5113
▁stamp	-11.5113
を築いた	-11.5113
宇治市	-11.5114
▁blow	-11.5114
告げ	-11.5115
▁curve	-11.5116
を使った	-11.512
▁Nobutaka	-11.5125
course	-11.5129
おん	-11.5131
職業	-11.5132
込	-11.5135
串	-11.5152
埼玉県	-11.5152
郊	-11.5152
▁Agriculture	-11.5152
▁execution	-11.5152
▁Currently	-11.5152
▁activity	-11.5153
郵便局	-11.5153
岐阜県	-11.5153
▁afterwards	-11.5153
(1867	-11.5153
創始	-11.5153
▁arose	-11.5154
完全	-11.5154
▁Kagetoki	-11.5154
▁Sagano	-11.5155
▁Rennyo	-11.5155
▁Yanagi	-11.5155
を図った	-11.5155
▁brand	-11.5155
をかけて	-11.5156
素材	-11.5156
建造物	-11.5157
▁Chujo	-11.516
▁passenger	-11.5162
▁realm	-11.5162
▁soil	-11.5165
舞踊	-11.5168
師範	-11.5168
説得	-11.5169
▁mill	-11.5171
資金	-11.5173
▁arrest	-11.5175
薩軍	-11.5186
と考える	-11.5186
ぶん	-11.519
▁loyal	-11.5191
翻	-11.5191
▁multi	-11.5191
墾	-11.5192
▁Interior	-11.5192
commissioner	-11.5192
▁fashion	-11.5192
凶	-11.5192
▁copied	-11.5192
≒	-11.5192
芹沢	-11.5192
▁beef	-11.5192
▁advice	-11.5192
▁Fire	-11.5193
でありながら	-11.5193
発掘	-11.5194
兵庫	-11.5194
塚古墳	-11.5196
指摘されている	-11.5198
置いて	-11.52
筑前	-11.5201
医師	-11.5201
義昭	-11.5202
兼務	-11.5204
帰り	-11.5206
▁sail	-11.5207
▁signed	-11.521
影響を与えた	-11.5211
▁Umako	-11.5211
DE	-11.5217
林寺	-11.5217
▁decide	-11.5219
June	-11.522
person	-11.5223
著名	-11.5225
厩	-11.5232
阻	-11.5232
▁architectural	-11.5232
▁extension	-11.5232
紀元前	-11.5232
▁Bingo	-11.5232
構想	-11.5232
出産	-11.5232
転換	-11.5233
附属	-11.5233
▁Life	-11.5233
▁outstanding	-11.5234
▁syllables	-11.5234
授与	-11.5234
▁rival	-11.5234
現象	-11.5236
主催	-11.5237
城郭	-11.5237
▁encouraged	-11.5237
移築	-11.5242
めん	-11.5244
▁chain	-11.5251
approximately	-11.5251
▁experienced	-11.5251
付けられ	-11.5252
清原	-11.5253
殺された	-11.5254
▁この間	-11.526
相模国	-11.5272
痛	-11.5272
豚	-11.5272
壱	-11.5272
プロダクション	-11.5272
液	-11.5272
▁Uzumasa	-11.5272
▁breweries	-11.5272
▁circular	-11.5272
▁keyhole	-11.5272
▁Shitenno	-11.5272
▁disturbance	-11.5272
▁hometown	-11.5273
前半	-11.5275
幕臣	-11.5275
劇場	-11.5277
Classic	-11.5278
遺言	-11.5281
ility	-11.5287
▁Water	-11.529
▁Komei	-11.5291
Article	-11.5292
cession	-11.5293
tract	-11.5298
研究者	-11.5305
代わり	-11.5306
after	-11.531
遣唐使	-11.5312
エピソード	-11.5312
杖	-11.5312
▁arrival	-11.5312
▁bloom	-11.5312
▁narrative	-11.5312
愚	-11.5312
不動明王	-11.5312
伯爵	-11.5312
慣習	-11.5312
▁Danjuro	-11.5313
interpret	-11.5315
郎党	-11.5315
storm	-11.5316
▁Omikami	-11.5318
Yodo	-11.532
武術	-11.5321
哲学	-11.5323
▁timetable	-11.5324
戦乱	-11.5325
条例	-11.5329
主要な	-11.5331
しようとする	-11.5331
交代	-11.5338
▁Setsu	-11.5339
弓道	-11.5347
masterless	-11.5348
伊藤博文	-11.5352
歓	-11.5352
を冠称する	-11.5352
捕らえられ	-11.5352
穢	-11.5352
沙汰	-11.5352
京福電気鉄道	-11.5352
次々と	-11.5352
▁describing	-11.5352
▁wives	-11.5352
▁YAMADA	-11.5352
延伸	-11.5353
▁Kiyomizu	-11.5355
ざん	-11.5356
責任	-11.5356
陰陽師	-11.5356
解決	-11.536
▁Gunma	-11.5365
戦場	-11.5367
権勢	-11.5369
eastern	-11.5377
ふく	-11.5378
記述がある	-11.5378
介入	-11.5386
天津	-11.539
山陰本線	-11.5393
凝	-11.5393
みなもとの	-11.5393
天満宮	-11.5393
稀	-11.5393
▁Chapter	-11.5393
▁ROKKAKU	-11.5393
柿	-11.5393
▁injured	-11.5393
交わ	-11.5393
▁aristocrats	-11.5394
▁Design	-11.5395
▁specifically	-11.5395
▁Betto	-11.5395
奉仕	-11.5396
Trans	-11.5397
杜氏	-11.5401
vy	-11.5402
編集	-11.5404
兵士	-11.5406
▁push	-11.5412
前者	-11.5412
▁Higher	-11.5416
なくなる	-11.5417
を迎える	-11.5418
蘇我氏	-11.542
▁achieve	-11.5422
寛平	-11.5423
衰	-11.5428
希	-11.5433
胸	-11.5433
揺	-11.5433
患	-11.5433
廃藩置県	-11.5433
宮内省	-11.5433
皿	-11.5433
▁Memorial	-11.5433
▁studio	-11.5433
▁triggered	-11.5433
じんじゃ	-11.5434
後白河法皇	-11.5434
▁masterpiece	-11.5434
▁hairstyle	-11.5436
蓮如	-11.5436
▁leadership	-11.5437
氏の祖	-11.5438
著名な	-11.5439
工夫	-11.5439
保管	-11.5441
▁soldier	-11.5447
尽力	-11.5448
無視	-11.5449
▁ideal	-11.5451
▁shite	-11.5451
▁plea	-11.5454
返す	-11.5458
▁1878	-11.5459
Keihan	-11.5459
fall	-11.5464
貌	-11.5474
インターチェンジ	-11.5474
脂	-11.5474
▁chronicle	-11.5474
▁conquest	-11.5474
▁diameter	-11.5474
▁slope	-11.5474
芸妓	-11.5474
っぽ	-11.5475
救済	-11.5475
訪れた	-11.5475
支配下	-11.5476
▁Hatamoto	-11.5477
▁墓所は	-11.5477
離れた	-11.5477
▁Chugoku	-11.5477
Korea	-11.5479
以下のような	-11.5479
▁Nen	-11.5487
WAKI	-11.549
つとめ	-11.5493
western	-11.55
空手	-11.5504
▁sending	-11.5504
に転じ	-11.5507
描かれた	-11.5507
bureaucrat	-11.5513
▁soybean	-11.5515
神奈川県	-11.5515
▁freight	-11.5515
天平勝宝	-11.5515
▁sky	-11.5515
▁Poets	-11.5515
▁virtually	-11.5515
▁garment	-11.5516
▁pork	-11.5517
▁biwa	-11.5517
外戚	-11.5518
▁vertical	-11.5519
▁Ienari	-11.552
経済的	-11.5523
なくなり	-11.5525
遊女	-11.5529
▁1976	-11.553
▁Hizen	-11.553
構内	-11.5532
組み合わせ	-11.5534
と呼ばれていた	-11.5534
払い	-11.5537
▁1865	-11.554
協議	-11.5541
阿部	-11.5542
崩	-11.5545
▁capture	-11.5545
▁Takamori	-11.5549
己	-11.5555
別れ	-11.5556
▁YAMAGATA	-11.5556
▁persuade	-11.5556
▁proclamation	-11.5556
▁scattered	-11.5556
▁tunnel	-11.5556
▁kingdom	-11.5556
徳川氏	-11.5556
▁denied	-11.5557
(1863	-11.5557
朽木	-11.5558
考案	-11.5558
之丞	-11.5558
激しい	-11.5559
価格	-11.5559
試合	-11.556
▁KATSU	-11.5561
▁calm	-11.5562
の意向	-11.5563
▁Takakage	-11.5563
風俗	-11.5565
1500	-11.557
▁Saigoku	-11.5571
絵師	-11.5576
view	-11.5579
numa	-11.5581
▁Miyagi	-11.5584
Tokugawa	-11.5584
出来る	-11.5584
そこから	-11.5592
匂	-11.5598
群馬県	-11.5598
▁AKAMATSU	-11.5598
▁Liberal	-11.5598
▁complicated	-11.5598
▁Transportation	-11.5599
反映	-11.56
▁reside	-11.5603
▁gagaku	-11.5607
▁Motonari	-11.5607
を伝える	-11.5607
シア	-11.5609
▁1963	-11.5613
伝えた	-11.5613
弁官	-11.5613
▁workers	-11.562
することができる	-11.5625
を与えた	-11.5625
複数	-11.5629
帰京	-11.5632
てしまい	-11.5633
往	-11.5634
抑え	-11.5638
飼	-11.5639
▁Nakatsukasa	-11.5639
弥生時代	-11.5639
▁calligrapher	-11.5639
▁convenience	-11.5639
▁parallel	-11.5639
曳	-11.5639
▁Film	-11.5639
祈祷	-11.5639
伝わった	-11.5639
胡弓	-11.564
光源氏	-11.5641
並べ	-11.5642
厳しい	-11.5642
▁attendants	-11.5643
慣例	-11.5645
▁accompanying	-11.5647
▁accomplish	-11.5648
祭礼	-11.5651
強制	-11.5655
援軍	-11.5661
経路	-11.5661
必要がある	-11.5662
隈	-11.5663
▁affect	-11.5664
▁Gra	-11.5669
に列し	-11.567
最中	-11.5672
城の戦い	-11.5676
まっている	-11.568
以仁王	-11.5681
▁adjust	-11.5681
蕃	-11.5681
▁Sanskrit	-11.5681
▁Shimousa	-11.5681
▁housing	-11.5681
▁missionary	-11.5681
離脱	-11.5682
▁Mochihito	-11.5684
それ以前	-11.5684
既	-11.5686
▁exclusively	-11.5689
事務所	-11.5689
empt	-11.5689
▁Tokimasa	-11.569
▁Katsuragi	-11.5695
関心	-11.5697
明治以降	-11.5698
Tale	-11.5703
降り	-11.5707
京都府立	-11.5713
くなった	-11.5713
槻	-11.5718
社殿	-11.572
▁このことから	-11.5722
償	-11.5723
熙	-11.5723
褒	-11.5723
槃	-11.5723
▁British	-11.5723
▁Counselor	-11.5723
▁placing	-11.5723
▁SAKAMOTO	-11.5723
薬師如来	-11.5723
▁medium	-11.5723
汚	-11.5723
▁angry	-11.5723
▁wound	-11.5723
検討	-11.5724
stead	-11.5724
▁debate	-11.5725
届	-11.5726
追加	-11.5729
範頼	-11.5731
▁suffering	-11.5731
▁holder	-11.5732
費用	-11.5732
を強め	-11.574
急死	-11.574
▁compile	-11.5751
という説がある	-11.5752
knowledge	-11.5755
天暦	-11.5755
▁safe	-11.5756
▁Suiko	-11.5756
蛮	-11.5765
京都市伏見区	-11.5765
miscellaneous	-11.5765
▁Engineering	-11.5765
▁TAKATSUKASA	-11.5765
▁Through	-11.5765
ヴァ	-11.5765
披露	-11.5765
▁Inoue	-11.5765
▁straw	-11.5765
候補	-11.5767
上がり	-11.5767
▁Vol	-11.5768
足軽	-11.5769
ご飯	-11.577
ないように	-11.5771
▁Yoriyuki	-11.5773
を求めた	-11.5775
▁robe	-11.578
煎茶	-11.5782
▁Tokuso	-11.5783
を知った	-11.5788
水戸藩	-11.5794
ラーメン	-11.5807
孝明天皇	-11.5807
▁Kitakinki	-11.5807
▁Okuninushi	-11.5807
▁WATANABE	-11.5807
▁adjacent	-11.5807
▁sufficient	-11.5807
京都市営バス	-11.5807
▁Hirobumi	-11.5807
曾孫	-11.5808
往来	-11.5808
黄砂	-11.5809
▁Plan	-11.5809
▁banned	-11.581
▁諱は	-11.5812
滅ぼし	-11.5814
▁Nobushige	-11.5815
承久	-11.5822
▁scar	-11.5822
かれている	-11.5823
▁1992	-11.5823
ものではない	-11.5828
q	-11.5828
氏の一族	-11.5829
▁finish	-11.5832
衆生	-11.5841
埋め	-11.5846
を発し	-11.5848
キリシタン	-11.5849
楠	-11.5849
KTR	-11.5849
▁Various	-11.5849
▁elevated	-11.5849
▁fiscal	-11.5849
▁reserve	-11.5849
中御門	-11.5849
鹿児島県	-11.5851
丁銀	-11.5852
▁cultivated	-11.5853
東福寺	-11.5854
伊予国	-11.5857
地震	-11.5858
▁Norinaga	-11.5858
オン	-11.586
交易	-11.5861
▁greatest	-11.5862
自治体	-11.5862
同時代	-11.5866
敗戦	-11.5866
わざ	-11.5875
ライス	-11.5875
番組	-11.5876
▁initial	-11.5882
不可能	-11.5884
kg	-11.5884
Captain	-11.5884
込め	-11.5888
薬師	-11.5891
魏	-11.5892
にもかかわらず	-11.5892
KANSAI	-11.5892
▁Exhibition	-11.5892
▁KITABATAKE	-11.5892
▁Regarding	-11.5892
▁copies	-11.5892
▁engraved	-11.5892
▁exclude	-11.5892
▁executive	-11.5892
▁lantern	-11.5892
▁Arisugawa	-11.5892
▁Leaves	-11.5892
▁agency	-11.5892
▁inspection	-11.5892
大国主	-11.5892
稽古	-11.5893
足利義昭	-11.5894
指示	-11.5895
近隣	-11.5895
▁Nagahama	-11.5895
貞享	-11.5896
▁selection	-11.5896
▁Tokitada	-11.5897
佐渡	-11.5902
を主張し	-11.5904
▁saved	-11.5907
弘化	-11.5907
をとる	-11.5907
▁1952	-11.5908
▁Tadamasa	-11.591
川の戦い	-11.591
▁ride	-11.5917
▁constitution	-11.5917
dramatic	-11.5918
自身も	-11.592
構	-11.5928
▁procession	-11.593
quality	-11.5932
▁minor	-11.5932
腐	-11.5934
associate	-11.5934
叛	-11.5935
哀	-11.5935
症	-11.5935
▁Ordinance	-11.5935
▁wheat	-11.5935
▁photograph	-11.5935
▁layout	-11.5935
▁Joruri	-11.5935
▁panel	-11.5935
Secret	-11.5935
短い	-11.5938
自宅	-11.5938
▁moreover	-11.5938
▁insert	-11.5939
実態	-11.5939
桜井	-11.5942
エン	-11.5944
呼ぶ	-11.5944
地獄	-11.5944
悟り	-11.5945
弾正	-11.5945
kkei	-11.5949
グラ	-11.595
▁1954	-11.5953
とくに	-11.5954
建てられ	-11.5955
▁select	-11.5956
▁expel	-11.5957
NAMI	-11.596
三輪	-11.5962
▁designation	-11.5964
public	-11.5971
▁Butsu	-11.5971
▁repeated	-11.5975
▁cooperate	-11.5977
▁eliminate	-11.5977
破壊	-11.5979
▁debt	-11.5979
▁distinction	-11.598
▁Coup	-11.5984
を命じた	-11.5985
▁taifu	-11.5986
▁sort	-11.5987
住持	-11.5987
ICHI	-11.5989
▁seriously	-11.5999
天王寺	-11.6
度々	-11.6003
を著し	-11.6004
隠れ	-11.6013
片岡	-11.6015
grade	-11.6019
扶	-11.6019
衆議院	-11.602
慎	-11.602
塵	-11.6021
天照大神	-11.6021
BAYASHI	-11.6021
▁independence	-11.6021
▁resignation	-11.6021
獣	-11.6021
隋	-11.6021
小早川	-11.6021
鵜飼	-11.6021
▁average	-11.6021
抗争	-11.6021
下総国	-11.6022
終わり	-11.6023
▁Shimane	-11.6027
▁Hikone	-11.6027
▁Tadazane	-11.6028
▁manufactured	-11.6031
▁1906	-11.6033
講堂	-11.6034
通貨	-11.6034
を示した	-11.6044
▁remove	-11.6051
▁curse	-11.6053
元慶	-11.6058
どおり	-11.606
Kamakura	-11.606
front	-11.6061
係	-11.6061
express	-11.6062
内蔵助	-11.6064
猫	-11.6064
─	-11.6064
鉾	-11.6064
▁HONDA	-11.6064
▁Early	-11.6064
Painting	-11.6064
往復	-11.6064
伝わっている	-11.6064
記紀	-11.6064
▁contemporary	-11.6065
単独	-11.6065
▁Moronao	-11.6066
▁Katsuyori	-11.6068
慶喜	-11.6069
讃岐	-11.607
付属	-11.607
育成	-11.6072
先祖	-11.6075
織田氏	-11.6076
頼盛	-11.6081
ダイ	-11.6085
▁Soseki	-11.6086
明智	-11.6086
官司	-11.6088
Mon	-11.609
者たち	-11.61
▁1924	-11.6101
摂家	-11.6106
岐阜	-11.6106
焼酎	-11.6107
京都市上京区	-11.6107
▁ASAKURA	-11.6107
▁Appointed	-11.6107
▁weather	-11.6107
機械	-11.6107
▁club	-11.6107
窯	-11.6107
▁purple	-11.6107
▁terminal	-11.6107
▁Kanazawa	-11.6108
に従事	-11.6108
▁Pond	-11.6109
連携	-11.611
五男	-11.6115
変わり	-11.6115
決意	-11.6116
などを歴任	-11.6117
▁speaking	-11.6118
隆盛	-11.6125
退位	-11.6126
▁Keihanshin	-11.6127
▁exceptional	-11.6127
が置かれた	-11.6128
ことができた	-11.613
▁Yoshiakira	-11.613
ことが多かった	-11.6136
連合軍	-11.6137
を加えた	-11.614
Kashiwa	-11.6142
安達	-11.6143
lv	-11.6151
菅原道真	-11.6151
▁thorough	-11.6151
▁Manchuria	-11.6151
▁Treasury	-11.6151
▁broadcast	-11.6151
▁sculpture	-11.6151
▁extinct	-11.6151
▁merely	-11.6151
敗走	-11.6153
(1600	-11.6153
確定	-11.6159
あわせて	-11.6161
成果	-11.6164
▁1974	-11.6168
少女	-11.6174
▁1183	-11.6174
▁fudai	-11.6178
▁Teika	-11.6179
▁compose	-11.6182
擁	-11.6182
regent	-11.6192
平安時代初期	-11.6193
慕	-11.6195
彌	-11.6195
▁ceramic	-11.6195
徳川秀忠	-11.6195
▁application	-11.6195
▁sliding	-11.6195
▁biggest	-11.6195
▁coffin	-11.6195
きゅう	-11.6195
綴	-11.6195
▁merger	-11.6195
▁Personal	-11.6195
▁MATSUNAGA	-11.6195
▁instance	-11.6195
▁informed	-11.6196
▁safety	-11.6196
保元の乱	-11.6196
繁栄	-11.6197
▁spite	-11.6197
荘園領主	-11.6197
言われ	-11.6198
を建て	-11.6198
▁Naval	-11.6199
甲賀	-11.6199
▁Konoefu	-11.6202
の命により	-11.6203
▁controlling	-11.6205
を迎えた	-11.6205
神祇	-11.6207
親交	-11.6207
陵墓	-11.6213
互	-11.6214
っていった	-11.6215
衣装	-11.6217
一種の	-11.622
正しい	-11.622
に任ぜられる	-11.622
時代劇	-11.6222
For	-11.6224
▁alter	-11.6226
京都市内	-11.6228
日本国内	-11.6229
▁Toei	-11.6231
史実	-11.6231
syllable	-11.6237
▁1921	-11.6237
狐	-11.6239
有栖川宮	-11.6239
靖	-11.6239
日清戦争	-11.6239
▁Hatakeyama	-11.6239
▁Izanagi	-11.6239
▁resemble	-11.6239
▁mutual	-11.6239
senior	-11.6239
▁Kuroda	-11.624
車庫	-11.6241
を行っていた	-11.6242
▁Jiju	-11.6244
nyorai	-11.6245
gasaki	-11.6246
ついで	-11.6247
切った	-11.6251
▁Dance	-11.6252
豊岡	-11.6252
▁1959	-11.6258
▁1333	-11.626
ビル	-11.626
設けられ	-11.6263
▁Tenpo	-11.6264
▁install	-11.6267
町奉行	-11.6267
創業	-11.6273
に基づき	-11.6283
コーヒー	-11.6283
俣	-11.6283
諸説ある	-11.6283
▁detached	-11.6283
▁revenue	-11.6283
▁enhance	-11.6283
徳川慶喜	-11.6284
平安時代前期	-11.6284
赴任	-11.6286
Saru	-11.6287
▁riding	-11.6288
▁Katsuie	-11.6289
▁stable	-11.629
美しい	-11.6291
▁Yasaka	-11.6292
ッド	-11.6294
▁Music	-11.6294
説が有力	-11.6298
述べた	-11.6304
同族	-11.6304
園部	-11.6306
帰還	-11.6318
▁Shaku	-11.6318
▁German	-11.6323
綾	-11.6324
週	-11.6328
脳	-11.6328
胎	-11.6328
▁administered	-11.6328
▁chairman	-11.6328
▁exploit	-11.6328
▁impression	-11.6328
▁politician	-11.6328
逮捕	-11.6328
▁managing	-11.6328
▁miyatsuko	-11.6328
タクシー	-11.6328
捕縛	-11.6328
clock	-11.6328
抑	-11.6329
people	-11.633
▁Sword	-11.633
ceremony	-11.633
▁friendship	-11.633
普通列車	-11.6331
▁stipulated	-11.6331
▁Reigen	-11.6334
自殺	-11.6336
鎮座	-11.6336
▁Eight	-11.6339
▁Shichijo	-11.6342
▁Tax	-11.6342
▁1957	-11.6345
mitama	-11.6346
発見された	-11.6347
▁ingredient	-11.6352
▁1975	-11.6353
峰山	-11.6353
坂東	-11.6354
▁assassin	-11.6367
graduate	-11.6372
島根県	-11.6372
▁Ceremony	-11.6372
▁Popular	-11.6372
▁agriculture	-11.6372
▁bestowed	-11.6372
▁fourteenth	-11.6372
▁institute	-11.6372
▁universities	-11.6372
朱子学	-11.6372
取締	-11.6373
構築	-11.6373
大宝律令	-11.6373
大仏殿	-11.6376
▁Gakko	-11.6378
▁Upon	-11.6379
用いられている	-11.638
にくい	-11.6381
▁IKE	-11.6381
▁Kiyomasa	-11.6381
▁Onmyodo	-11.6387
▁1966	-11.639
▁1956	-11.6391
を元に	-11.6394
▁1184	-11.6394
▁retain	-11.6395
▁Enyu	-11.6401
▁Saigu	-11.6404
特定	-11.6409
スタン	-11.6409
小姓	-11.641
猟	-11.6417
枯	-11.6417
喫	-11.6417
affiliated	-11.6417
▁expulsion	-11.6417
▁surviving	-11.6417
▁armies	-11.6417
▁corps	-11.6417
▁everything	-11.6417
需要	-11.6417
を除き	-11.6417
▁nengu	-11.6418
▁Okazaki	-11.6418
に移った	-11.6419
▁authorities	-11.642
Three	-11.6421
宝塚	-11.6425
相談	-11.6425
っていく	-11.6425
▁scenery	-11.6427
確実	-11.6428
植え	-11.6429
▁1934	-11.6437
に置かれた	-11.6438
▁1968	-11.6439
▁difficulty	-11.6441
▁Kawara	-11.6455
湊	-11.6462
叩	-11.6462
蹴	-11.6462
言えば	-11.6462
暁	-11.6462
に叙任	-11.6462
▁budget	-11.6462
▁divination	-11.6462
▁remnants	-11.6462
○○	-11.6462
▁Seventh	-11.6462
と推定される	-11.6462
mandala	-11.6462
海苔	-11.6463
グラム	-11.6463
援助	-11.6464
紛争	-11.6466
▁dough	-11.6468
▁planning	-11.6468
大学寮	-11.6469
▁tie	-11.6477
禅師	-11.6478
養成	-11.6482
▁preached	-11.6484
プラ	-11.6487
福島	-11.6491
職員	-11.6492
慶安	-11.6493
に際し	-11.6505
責	-11.6506
妾	-11.6507
慰	-11.6507
少納言	-11.6507
藻	-11.6507
▁abbot	-11.6507
▁capacity	-11.6507
▁charcoal	-11.6507
▁pottery	-11.6507
▁Sacred	-11.6507
▁borrow	-11.6507
仇	-11.6507
▁revenge	-11.6507
▁Omote	-11.6508
▁ikki	-11.6508
隠岐	-11.6508
趣味	-11.6509
防衛	-11.651
荒廃	-11.651
情勢	-11.6513
▁birthday	-11.6521
執行	-11.6524
近代化	-11.6527
▁Wakoku	-11.6527
▁rope	-11.653
▁improve	-11.6537
海岸	-11.6538
▁Yin	-11.6552
寅	-11.6553
冒	-11.6553
奨励	-11.6553
併せて	-11.6553
Commentary	-11.6553
▁Construction	-11.6553
▁cavalry	-11.6553
▁dwelling	-11.6553
楊	-11.6553
▁Power	-11.6553
と並んで	-11.6553
▁wrap	-11.6554
▁Benkei	-11.6556
▁appreciated	-11.6557
階層	-11.6557
連続	-11.6558
▁ogre	-11.6558
投入	-11.6559
相対	-11.6559
▁specialized	-11.6562
▁cord	-11.6565
豊臣氏	-11.6566
▁Masayuki	-11.6566
▁Yoshichika	-11.6568
▁slow	-11.6576
▁1933	-11.6578
▁agent	-11.658
小浜	-11.6583
濠	-11.6598
桶	-11.6598
excluding	-11.6599
▁Ceremonial	-11.6599
▁coffee	-11.6599
▁crisis	-11.6599
▁uncertain	-11.6599
頓	-11.6599
に向かう	-11.6599
▁Career	-11.6599
▁compound	-11.6599
▁dragon	-11.6599
ゆかりの	-11.6599
開拓	-11.6599
釈迦如来	-11.6599
発掘調査	-11.6599
福島県	-11.6599
規則	-11.66
広島県	-11.66
健康	-11.6601
帰依	-11.6601
印象	-11.6602
歳のとき	-11.6602
▁mainstream	-11.6602
▁spend	-11.6602
才能	-11.6603
▁Susanoo	-11.6604
▁Tadaoki	-11.6605
梅若	-11.6606
▁Harumoto	-11.6607
▁everyday	-11.6607
▁specialty	-11.661
大隈	-11.6618
▁Junna	-11.6618
両編成	-11.662
五百	-11.6623
▁Sonno	-11.6631
▁bit	-11.6638
八幡市	-11.6644
万国公法	-11.6644
六波羅探題	-11.6644
にあたった	-11.6644
▁Hyuga	-11.6644
▁essay	-11.6644
▁INABA	-11.6644
▁Kyotanabe	-11.6644
▁Mahayana	-11.6644
▁contrary	-11.6644
▁syllabary	-11.6644
▁varieties	-11.6644
▁radical	-11.6644
城下町	-11.6645
標準	-11.6645
印刷	-11.6645
延喜式	-11.6645
一連の	-11.6645
ハイ	-11.6646
▁downfall	-11.6647
zz	-11.6647
難しい	-11.6648
▁Iemochi	-11.6649
敵対	-11.6649
▁Fine	-11.665
法華宗	-11.6652
とする説がある	-11.6659
(1582	-11.6661
▁pack	-11.6664
を行って	-11.6664
使用されている	-11.6665
▁1984	-11.6666
▁1892	-11.6669
Genpei	-11.6669
を守る	-11.667
公布	-11.6671
幼い	-11.6673
▁expect	-11.6673
バス停	-11.6687
出町柳	-11.669
illustrated	-11.669
▁Consort	-11.669
▁NAITO	-11.669
▁journey	-11.669
▁occupy	-11.669
▁variation	-11.669
▁Mimasaka	-11.6691
柵	-11.6691
▁Kudara	-11.6691
▁Sonobe	-11.6691
顧問	-11.6691
沿岸	-11.6691
処罰	-11.6691
▁bureaucrats	-11.6693
▁Highway	-11.6694
筒井	-11.6695
▁export	-11.6695
平均	-11.6696
親族	-11.6696
輸出	-11.6697
バラ	-11.6698
似ている	-11.6702
▁Ze	-11.6705
▁lake	-11.6709
家臣団	-11.6712
吹き	-11.6716
▁1935	-11.6716
▁wave	-11.6723
に移され	-11.6723
▁teach	-11.6724
存在していた	-11.6728
に達し	-11.6735
櫛	-11.6737
湿	-11.6737
▁Tsuchimikado	-11.6737
▁alternative	-11.6737
▁enforcement	-11.6737
▁illustration	-11.6737
▁transformed	-11.6737
大河ドラマ	-11.6737
太上天皇	-11.6737
▁Heaven	-11.6737
考慮	-11.6737
▁nyogo	-11.6738
阿倍	-11.6738
単なる	-11.6739
▁transition	-11.6739
艦隊	-11.6739
始祖	-11.674
▁TOKI	-11.6743
三昧	-11.6743
弁慶	-11.6743
能登	-11.6744
宮司	-11.6744
らしく	-11.6745
蓮華	-11.6746
▁Bunroku	-11.6746
zakura	-11.6748
教員	-11.6752
番頭	-11.6753
▁1866	-11.6762
▁Post	-11.6773
大日本帝国	-11.6783
○	-11.6783
▁bureau	-11.6783
皇室典範	-11.6783
耶	-11.6783
憂	-11.6783
prostitute	-11.6783
▁absolute	-11.6783
▁expensive	-11.6783
▁fermentation	-11.6783
巳	-11.6783
キネマ	-11.6783
▁burden	-11.6783
茨城県	-11.6783
を高め	-11.6783
を防ぐ	-11.6784
俳句	-11.6784
警護	-11.6784
▁KIRA	-11.6787
の多くが	-11.6787
衣服	-11.6789
▁lotus	-11.679
食材	-11.6792
flower	-11.6793
松浦	-11.6794
Fushimi	-11.6796
ground	-11.6797
合奏	-11.6798
福知山市	-11.68
▁gather	-11.68
二条天皇	-11.6801
▁Nakagyo	-11.6802
被官	-11.6802
冷泉天皇	-11.6803
編入	-11.6805
出席	-11.6811
出羽国	-11.6813
▁subdue	-11.6815
慣	-11.6823
tsuzumi	-11.6823
泣	-11.683
儲	-11.683
潔	-11.683
アクセス	-11.683
伯耆	-11.683
▁Administration	-11.683
▁Brief	-11.683
▁Recently	-11.683
▁graveyard	-11.683
遠江国	-11.683
後鳥羽天皇	-11.683
樺太	-11.683
▁pepper	-11.683
希望	-11.6831
▁NAKAYAMA	-11.6833
奮戦	-11.6835
季節	-11.6836
子女王	-11.6836
▁本尊は	-11.6837
建造	-11.684
▁妻は	-11.6843
deputy	-11.6844
昼間	-11.6845
▁Roju	-11.6848
▁1967	-11.6851
歴史学	-11.6867
白河天皇	-11.687
沖縄	-11.6876
鴎	-11.6877
囚	-11.6877
箔	-11.6877
励	-11.6877
平治の乱	-11.6877
▁Dynasties	-11.6877
▁featuring	-11.6877
▁promulgated	-11.6877
▁salary	-11.6877
浅草	-11.6879
引き続き	-11.6879
▁Ukon	-11.6882
少なくとも	-11.6883
hachiman	-11.6884
差別	-11.6886
▁starch	-11.6887
break	-11.6892
however	-11.6892
north	-11.69
堺市	-11.6903
特権	-11.6912
を残した	-11.6921
をめぐって	-11.6924
京都所司代	-11.6924
枢	-11.6924
▁hospital	-11.6924
▁signature	-11.6924
▁Prize	-11.6924
▁Peace	-11.6924
▁deemed	-11.6924
▁crack	-11.6924
昆布	-11.6925
企画	-11.6925
▁announcement	-11.6925
▁missing	-11.6927
▁occasionally	-11.6928
活用	-11.6931
▁Rule	-11.6934
▁Sanesuke	-11.6935
▁brown	-11.694
▁handling	-11.694
例えば	-11.694
This	-11.6941
観念	-11.695
留め	-11.6962
▁Indian	-11.6966
饗	-11.6971
もちろん	-11.6971
淀川水系	-11.6971
南禅寺	-11.6971
偶	-11.6972
チャー	-11.6972
▁Church	-11.6972
▁bottle	-11.6972
蔭	-11.6972
が起こり	-11.6972
新潟県	-11.6972
藤原定家	-11.6972
地蔵菩薩	-11.6973
参謀	-11.6974
非難	-11.6975
紙幣	-11.6975
箱館	-11.6976
▁KOGA	-11.6976
改札	-11.6976
列強	-11.6976
ようだ	-11.6976
裁判所	-11.6977
▁Nobukatsu	-11.6981
▁Kunai	-11.6987
飲み	-11.6988
備前	-11.6988
FUJIWARA	-11.6989
に及ぶ	-11.699
議定	-11.6991
島津氏	-11.6992
に住む	-11.6998
を入れて	-11.6998
▁affair	-11.7005
Bankoku	-11.7006
▁try	-11.7007
▁farmer	-11.7018
俳諧	-11.7019
芋	-11.7019
右近衛大将	-11.7019
悔	-11.7019
の流れを汲む	-11.7019
▁imina	-11.7019
▁originates	-11.7019
▁varies	-11.7019
幼名	-11.7019
▁kyogen	-11.7021
エリア	-11.7021
▁debut	-11.7021
▁yokai	-11.7021
▁interval	-11.7021
を巡って	-11.7022
講談	-11.7022
▁SHIMO	-11.7025
▁fence	-11.7028
春秋	-11.703
淀川	-11.7031
設備	-11.7031
▁1964	-11.7037
※	-11.7038
▁Yoshinari	-11.7039
を通して	-11.704
▁Du	-11.7043
mawari	-11.7045
ハン	-11.7051
仲間	-11.7056
吏	-11.7065
勅撰和歌集	-11.7067
▁confection	-11.7067
妙心寺	-11.7067
▁concrete	-11.7067
▁intersection	-11.7067
梶	-11.7067
内閣総理大臣	-11.7067
▁Present	-11.7067
▁siege	-11.7067
夕霧	-11.7067
▁biography	-11.7067
武田信玄	-11.7068
吸収	-11.7068
の猶子	-11.7068
▁difficulties	-11.7069
長岡京	-11.707
風呂	-11.707
有効	-11.7072
▁courtier	-11.7073
性質	-11.7083
本格的な	-11.7083
移封	-11.7084
▁homyo	-11.7084
Later	-11.7087
を称した	-11.7095
杯	-11.7115
石田三成	-11.7115
▁categories	-11.7115
▁maintenance	-11.7115
錬	-11.7115
洪	-11.7115
殆ど	-11.7115
直轄	-11.7116
を除いて	-11.7116
Hannya	-11.7116
を起こす	-11.7116
大友皇子	-11.7117
▁Hotel	-11.7117
▁commentary	-11.7117
▁boom	-11.7117
▁recite	-11.7119
向かい	-11.712
経過	-11.7125
握り	-11.7127
▁Tadamichi	-11.713
private	-11.7135
Royal	-11.7137
与えられる	-11.7141
▁happen	-11.7146
染め	-11.7151
頻	-11.7163
隷	-11.7163
を余儀なくされ	-11.7163
迹	-11.7163
茅	-11.7163
▁constitute	-11.7163
▁primary	-11.7163
枡	-11.7163
推挙	-11.7164
▁departure	-11.7164
提案	-11.7164
に代表される	-11.7164
▁Bound	-11.7165
▁Kuranosuke	-11.7165
ニュー	-11.7165
▁warlord	-11.7166
接続	-11.7166
埋	-11.7167
の鉄道駅	-11.7169
▁Seinan	-11.7171
▁Mr	-11.7174
▁20,000	-11.7174
一緒に	-11.7175
徳川家光	-11.7176
▁Masanobu	-11.7179
武芸	-11.718
▁1971	-11.7182
▁1973	-11.7183
birth	-11.7186
father	-11.7188
漬	-11.7188
▁prefix	-11.7195
意味合い	-11.72
▁malt	-11.7204
透	-11.7212
脅	-11.7212
収穫	-11.7212
左近衛中将	-11.7212
芦	-11.7212
▁Demachiyanagi	-11.7212
▁Initially	-11.7212
▁conclusion	-11.7212
▁network	-11.7212
▁struck	-11.7212
▁Himemiko	-11.7212
朗	-11.7212
▁relating	-11.7212
克	-11.7212
ジャン	-11.7212
▁WADA	-11.7212
▁parade	-11.7212
▁TAKAHASHI	-11.7212
▁maiden	-11.7212
(1864	-11.7213
▁textbook	-11.7213
▁jiuta	-11.7214
箏曲	-11.7214
能楽師	-11.7217
▁lifetime	-11.7217
が開始され	-11.7218
ワキ	-11.7218
▁nishiki	-11.722
発給	-11.722
▁flu	-11.7224
戦功	-11.7225
小袖	-11.7227
をさす	-11.7227
▁My	-11.723
▁Myoho	-11.7242
獲得	-11.7243
要因	-11.7252
emotion	-11.7255
傑	-11.7261
千手観音	-11.7261
異母弟	-11.7261
▁ceased	-11.7261
▁definition	-11.7261
▁judgment	-11.7261
▁revival	-11.7261
諭	-11.7261
鎧	-11.7261
正倉院	-11.7261
▁Mount	-11.7261
▁demise	-11.7261
storied	-11.7262
▁KAMO	-11.7264
▁peaceful	-11.7264
振興	-11.7264
絶対	-11.7265
▁Kanpei	-11.7265
mitt	-11.7266
昇殿	-11.7268
▁makeup	-11.7268
と号した	-11.7269
斯波氏	-11.7273
Councilor	-11.7287
に葬られた	-11.7297
踊	-11.7302
を派遣し	-11.7306
を利用して	-11.7309
西南戦争	-11.731
漏	-11.731
竣工	-11.731
と名乗る	-11.731
婚姻	-11.731
▁Mononobe	-11.731
▁Nikkatsu	-11.731
▁kilometers	-11.731
酷	-11.731
▁Store	-11.731
陰謀	-11.7311
京阪本線	-11.7311
▁Eighth	-11.7311
調整	-11.7312
に至り	-11.7312
山口県	-11.7312
東アジア	-11.7315
前提	-11.7316
▁その一方で	-11.7317
▁Tameyoshi	-11.7318
武功	-11.732
武装	-11.732
▁Shigehira	-11.7323
▁kokyu	-11.7324
ジュ	-11.7326
▁constitutional	-11.7331
特殊な	-11.7333
ものと思われる	-11.7336
味付け	-11.7336
と主張し	-11.7337
ebr	-11.734
仕立て	-11.734
personal	-11.734
TOKU	-11.7345
力士	-11.7346
を残し	-11.7347
evil	-11.7348
▁animal	-11.7348
▁usual	-11.7349
内紛	-11.7358
況	-11.7358
電気鉄道	-11.7358
の一環として	-11.7359
咲	-11.7359
百人一首	-11.7359
芽	-11.7359
イベント	-11.7359
惜	-11.7359
▁column	-11.7359
▁craftsmen	-11.7359
▁elegant	-11.7359
▁guarantee	-11.7359
▁leather	-11.7359
▁mixture	-11.7359
▁storage	-11.7359
暖	-11.7359
▁Sometimes	-11.7359
調味料	-11.7359
ダイヤ改正	-11.7359
▁Shimabara	-11.736
敦賀	-11.7361
異母兄	-11.7362
▁SHIBATA	-11.7362
▁originator	-11.7362
▁Korechika	-11.7363
舎利	-11.7365
適用	-11.7368
▁Yukinaga	-11.7369
結果的に	-11.7369
▁Mototsune	-11.737
▁このうち	-11.7372
祖先	-11.7373
close	-11.7392
転じて	-11.7397
ってくる	-11.7399
NAGA	-11.7401
讃岐国	-11.7402
獲	-11.7408
響	-11.7408
篇	-11.7408
ブーム	-11.7408
▁HIJIKATA	-11.7408
定かではない	-11.7408
粗	-11.7408
▁Character	-11.7409
▁FURU	-11.7409
逢	-11.7409
と推定されている	-11.7409
花山院	-11.7409
にわたる	-11.7409
▁MATSUMOTO	-11.7409
官吏	-11.7411
討死	-11.7411
▁fifteenth	-11.7413
寛弘	-11.7414
関東地方	-11.7416
▁listen	-11.7417
資料館	-11.7417
志士	-11.7417
記載されている	-11.7417
councillor	-11.7419
亀岡市	-11.7422
に成功し	-11.7428
得意	-11.7434
亀岡	-11.745
伸	-11.7452
Tei	-11.7452
樫	-11.7458
天台座主	-11.7458
漉	-11.7458
▁OKUMA	-11.7458
胆	-11.7458
▁viscount	-11.7458
▁assuming	-11.7458
▁neighborhood	-11.7458
▁quiet	-11.7458
西郷隆盛	-11.7458
西大寺	-11.7459
相次いで	-11.7461
若干	-11.7462
つつある	-11.7463
活発	-11.7464
▁Nanzen	-11.747
▁mental	-11.7483
magistrate	-11.7488
僚	-11.7493
教養	-11.7496
ガン	-11.7502
▁respective	-11.7503
届け	-11.7504
建てた	-11.7505
剃	-11.7508
膨	-11.7508
債	-11.7508
Provincial	-11.7508
▁Gomizunoo	-11.7508
▁Promoted	-11.7508
▁Technology	-11.7508
▁enormous	-11.7508
▁kitchen	-11.7508
▁wisdom	-11.7508
▁Movement	-11.7508
▁Kashihara	-11.7508
▁Tochigi	-11.7508
▁evaluated	-11.7508
駿府	-11.7509
持明院統	-11.7509
▁load	-11.7509
勅許	-11.7509
▁horseback	-11.7509
▁submit	-11.751
佐伯	-11.7511
▁genre	-11.7511
梅雨	-11.7512
▁clay	-11.7513
どころ	-11.7513
旅館	-11.7514
公認	-11.7514
▁kanrei	-11.7515
未だ	-11.7518
くなって	-11.7545
▁sudden	-11.7549
典侍	-11.755
和歌集	-11.7553
逐	-11.7558
東京国立博物館	-11.7558
邑	-11.7558
▁Hospital	-11.7558
▁Metropolitan	-11.7558
▁afraid	-11.7558
▁loincloth	-11.7558
▁promoting	-11.7558
▁Utsunomiya	-11.7559
拳	-11.7559
天橋立	-11.7559
蒸気機関車	-11.7559
琳	-11.7559
▁honzon	-11.7559
(1862	-11.756
▁ramen	-11.756
還俗	-11.756
吉祥	-11.7562
▁hotel	-11.7565
制圧	-11.7565
嘉吉	-11.757
▁Shigenobu	-11.7571
出汁	-11.7573
▁data	-11.7577
全国的に	-11.7588
の原型	-11.7589
▁decrease	-11.7596
すべく	-11.7607
而	-11.7609
粛	-11.7609
爆	-11.7609
【	-11.7609
】	-11.7609
十一面観音	-11.7609
煕	-11.7609
粥	-11.7609
▁invocation	-11.7609
▁participants	-11.7609
▁subjugate	-11.7609
▁suspected	-11.7609
▁Takarazuka	-11.7609
▁editor	-11.7609
全般	-11.761
タイプ	-11.761
紫式部	-11.761
▁window	-11.7611
東北地方	-11.7611
工程	-11.7612
尼崎	-11.7613
まもなく	-11.7613
▁Toyooka	-11.7614
▁Toshimichi	-11.7617
築造	-11.7618
改修	-11.7621
gakari	-11.7623
廷	-11.7654
諾	-11.766
臼	-11.766
泡	-11.766
シリーズ	-11.766
が始まる	-11.766
▁Committee	-11.766
▁Type	-11.766
▁continuously	-11.766
▁meditation	-11.766
▁sleep	-11.766
▁widespread	-11.766
缶	-11.766
雛	-11.766
互いに	-11.766
grilled	-11.766
侯爵	-11.766
▁経歴	-11.766
zhou	-11.766
埴輪	-11.766
▁townspeople	-11.766
▁tight	-11.7661
honzan	-11.7661
市街地	-11.7662
同志社大学	-11.7662
▁naval	-11.7663
▁tiles	-11.7664
▁Iesada	-11.7664
▁Qi	-11.7666
▁Yoshikage	-11.7667
引退	-11.7668
▁Masahiro	-11.7671
備前国	-11.7672
▁Miura	-11.7672
公演	-11.7675
▁その際	-11.7676
▁1982	-11.7682
出てくる	-11.7682
速度	-11.7683
1.5	-11.7695
裂	-11.7707
カバネ	-11.7711
おそらく	-11.7711
okonomiyaki	-11.7711
▁Foundation	-11.7711
▁ceiling	-11.7711
▁pardoned	-11.7711
▁registration	-11.7711
世紀初頭	-11.7711
▁HASHIBA	-11.7711
▁Shimbun	-11.7711
▁seaweed	-11.7711
▁utilize	-11.7711
京都市営地下鉄	-11.7711
▁committee	-11.7711
学専攻	-11.7711
▁barrier	-11.7711
▁anything	-11.7711
大日本帝国憲法	-11.7711
に伴って	-11.7711
比企	-11.7711
▁cycle	-11.7711
終わる	-11.7711
諡号	-11.7712
珍しい	-11.7713
▁Miyazaki	-11.7713
▁hostage	-11.7714
勤務	-11.7714
を安置する	-11.7714
▁ornament	-11.7715
登場人物	-11.7715
容器	-11.7717
▁youngest	-11.7721
▁彼らは	-11.7721
▁Antoku	-11.7723
増え	-11.7746
唯	-11.7751
伐	-11.7762
圀	-11.7762
肝	-11.7762
▁investiture	-11.7762
▁relief	-11.7762
▁Style	-11.7762
▁Obama	-11.7762
ā	-11.7762
Story	-11.7763
退却	-11.7764
装置	-11.7766
▁Koyasan	-11.7768
▁lowest	-11.7768
過ごし	-11.7768
武士団	-11.7772
実質的に	-11.7781
▁preface	-11.7781
が形成され	-11.7786
sweet	-11.78
Q	-11.7803
出来ない	-11.7807
▁sovereign	-11.7813
躍	-11.7813
ッコ	-11.7813
裾	-11.7814
浸透	-11.7814
涼	-11.7814
▁Gofukakusa	-11.7814
▁dialect	-11.7814
▁technical	-11.7814
▁transmitted	-11.7814
大日如来	-11.7814
▁credit	-11.7814
▁Amagasaki	-11.7814
▁roast	-11.7815
▁earned	-11.7815
を巡る	-11.7815
▁exposed	-11.7815
証拠	-11.7815
演劇	-11.7815
▁明治維新後	-11.7818
▁delivery	-11.7818
▁unification	-11.782
▁Yoshioki	-11.7824
拍子	-11.7826
変遷	-11.7841
を機に	-11.7846
に分けられ	-11.7847
に戻る	-11.7847
▁cloister	-11.7848
大正時代	-11.785
▁sew	-11.7852
Empress	-11.7853
paper	-11.7858
拘	-11.7865
妥	-11.7865
妨	-11.7865
▁Fukakusa	-11.7865
▁earthquake	-11.7865
▁simplified	-11.7865
▁steep	-11.7865
▁tumuli	-11.7865
▁Daruma	-11.7865
▁substantial	-11.7865
刈	-11.7865
卓	-11.7865
▁rescue	-11.7866
文章博士	-11.7866
▁stem	-11.7866
送られ	-11.7866
豊臣政権	-11.7867
▁impact	-11.7869
▁justice	-11.787
をもとに	-11.787
▁prints	-11.787
競馬	-11.7871
と呼ばれるようになった	-11.7873
▁teahouse	-11.7874
▁possess	-11.7896
阿弥陀仏	-11.7897
▁Basin	-11.7902
ことになり	-11.7904
*	-11.7906
輸	-11.7908
の大半	-11.7908
錯	-11.7917
曹洞宗	-11.7917
▁fulfill	-11.7918
矛盾	-11.7918
▁Federation	-11.7918
▁illegitimate	-11.7918
禎	-11.7918
謹慎	-11.7918
直ちに	-11.7918
免除	-11.792
供給	-11.792
栄えた	-11.7921
▁specter	-11.7922
▁Camp	-11.7923
▁personality	-11.7923
混同	-11.7925
▁Michitaka	-11.7927
storey	-11.7953
軌	-11.7965
消え	-11.7966
牽	-11.797
後水尾天皇	-11.797
薙	-11.797
闇	-11.797
▁cubic	-11.797
▁shaved	-11.797
▁hidden	-11.797
相国寺	-11.797
太平洋戦争	-11.797
納豆	-11.7972
血縁	-11.7973
▁Sumimoto	-11.7974
を残している	-11.7975
革命	-11.7975
▁deeds	-11.7976
▁hiding	-11.7977
準急	-11.7979
▁Yoritsuna	-11.798
用途	-11.7984
伯父	-11.7992
煎	-11.8001
Tenka	-11.8003
posthumous	-11.8013
although	-11.8017
メーカー	-11.8022
覇	-11.8022
涙	-11.8022
盲	-11.8022
▁Medieval	-11.8022
▁etiquette	-11.8022
▁positive	-11.8022
▁suspicion	-11.8022
太閤	-11.8023
嶽	-11.8023
▁Sarugaku	-11.8023
実際は	-11.8023
▁stole	-11.8023
提唱	-11.8023
に次ぐ	-11.8024
▁Sunpu	-11.8024
境界	-11.8027
scape	-11.803
土佐藩	-11.8047
控え	-11.8055
school	-11.8067
与えられ	-11.8074
Zoku	-11.8074
嘗	-11.8075
ウナギ	-11.8075
臭	-11.8075
▁accused	-11.8075
▁quoted	-11.8075
にも関わらず	-11.8075
博覧会	-11.8075
NUMA	-11.8075
推薦	-11.8075
鷲	-11.8075
篆刻	-11.8075
畝	-11.8075
▁bitter	-11.8077
▁magic	-11.8077
熊本県	-11.8077
普段	-11.8078
打倒	-11.8078
▁natto	-11.8078
▁Haihan	-11.8078
静岡	-11.8078
計算	-11.8078
総本山	-11.8079
離反	-11.8079
▁Yugiri	-11.8079
大量の	-11.8079
記念館	-11.8081
▁Shonagon	-11.8083
▁delay	-11.8085
▁ascend	-11.8112
▁introduce	-11.8115
支払	-11.8115
祇	-11.8121
同母兄	-11.8123
慢	-11.8129
へ向かう	-11.8129
旭	-11.8129
Please	-11.8129
▁Hyakunin	-11.8129
▁Traditional	-11.8129
▁circulated	-11.8129
▁comparable	-11.8129
▁enshrining	-11.8129
▁perspective	-11.8129
令制国	-11.8129
▁Jushiinojo	-11.8129
契約	-11.813
近畿地方	-11.8131
防止	-11.8131
ファン	-11.8131
追贈	-11.8132
華厳	-11.8132
▁cave	-11.8138
午前	-11.8139
liev	-11.8149
▁driver	-11.8157
▁disappear	-11.8165
▁exclusive	-11.8172
except	-11.8176
descend	-11.8182
凍	-11.8182
卜	-11.8182
曇	-11.8182
月下旬	-11.8182
匹	-11.8182
含まれている	-11.8182
亨	-11.8182
sculptor	-11.8182
▁bought	-11.8182
▁faculty	-11.8182
酔	-11.8182
▁counsel	-11.8182
析	-11.8182
▁Byodo	-11.8182
隠棲	-11.8182
▁strange	-11.8182
▁precedent	-11.8182
▁Access	-11.8183
抗議	-11.8183
てんのう	-11.8183
sacred	-11.8184
封建	-11.8187
▁jiju	-11.8191
源義朝	-11.8195
が開かれ	-11.8202
関ヶ原	-11.8218
▁manufacture	-11.8222
higashi	-11.8232
叡山電鉄	-11.8236
といえば	-11.8236
▁OGASAWARA	-11.8236
▁bullet	-11.8236
▁circulation	-11.8236
▁violent	-11.8236
evaluation	-11.8236
繊維	-11.8236
▁sechie	-11.8236
▁shakuhachi	-11.8236
具体的な	-11.8236
も多かった	-11.8236
▁loyalty	-11.8237
職掌	-11.8239
譲渡	-11.824
▁review	-11.8241
▁nominal	-11.8246
つけられ	-11.8246
▁employ	-11.8275
officer	-11.8286
generation	-11.8286
meaning	-11.8287
耐	-11.8288
祟	-11.829
撫	-11.829
勉	-11.829
棋	-11.829
鋭	-11.829
▁Girl	-11.829
▁Mongolia	-11.829
▁Jimyoin	-11.829
行なう	-11.829
世紀前半	-11.8291
▁Mochiuji	-11.8292
▁Akamatsu	-11.8292
大蔵省	-11.8292
映画監督	-11.8294
▁mold	-11.8298
▁Tokiyori	-11.8299
▁Yoshimochi	-11.8308
を中心として	-11.8313
▁feud	-11.834
warrior	-11.8341
猶	-11.8343
絡	-11.8343
一向一揆	-11.8344
蒔	-11.8344
裳	-11.8344
文部省	-11.8344
蹟	-11.8344
▁peninsula	-11.8344
京都市北区	-11.8344
▁Tsubone	-11.8344
を担う	-11.8344
憤	-11.8344
春日大社	-11.8345
宿泊	-11.8345
▁Sunday	-11.8347
評判	-11.8347
▁mural	-11.8348
上がった	-11.8353
を参照のこと	-11.8392
責任者	-11.8395
Diary	-11.8398
販	-11.8398
丸太町	-11.8399
李氏朝鮮	-11.8399
▁comparison	-11.8399
▁confronted	-11.8399
▁opposing	-11.8399
▁tournament	-11.8399
▁woodblock	-11.8399
▁church	-11.8399
▁encounter	-11.8399
▁external	-11.8399
京津線	-11.8399
年中行事	-11.8399
▁Isami	-11.8399
▁rural	-11.8399
国立銀行	-11.84
Univers	-11.84
を開く	-11.8401
倉庫	-11.8402
▁Tametomo	-11.8402
▁Yoshitane	-11.8408
加えられ	-11.8409
stitution	-11.8416
掌握	-11.8425
委員	-11.8431
に尽力した	-11.8437
▁praise	-11.8441
▁shift	-11.8441
神祇官	-11.8446
巾	-11.8454
抹	-11.8454
粘	-11.8454
▁commerce	-11.8454
▁remember	-11.8454
▁subjugation	-11.8454
▁poured	-11.8454
▁snake	-11.8454
▁Examples	-11.8455
と見られている	-11.8455
征討	-11.8455
▁singing	-11.8458
▁proof	-11.846
▁adoption	-11.8464
pickled	-11.8468
に限られ	-11.847
じょ	-11.8488
本格的	-11.8492
が確認され	-11.8492
二階堂	-11.8509
▁Jushii	-11.8509
隻	-11.8509
怖	-11.8509
▁Protection	-11.8509
▁dictionary	-11.8509
▁boiling	-11.8509
〈	-11.8509
喰	-11.8509
墳丘	-11.851
▁suburb	-11.851
▁Number	-11.851
課程	-11.851
priest	-11.851
違反	-11.8513
▁considerable	-11.8514
▁Jinja	-11.8516
に向かって	-11.8542
▁wealth	-11.856
拓	-11.8563
鎌倉公方	-11.8565
函	-11.8565
挑	-11.8565
臣籍降下	-11.8565
ぷ	-11.8565
▁balance	-11.8565
▁continent	-11.8565
▁divorce	-11.8565
▁phenomenon	-11.8565
▁scenic	-11.8565
に遷任	-11.8565
▁ARAKI	-11.8565
▁precise	-11.8565
▁Goddess	-11.8565
飴	-11.8565
▁Himiko	-11.8565
▁scheme	-11.8565
位牌	-11.8565
詳しい	-11.8565
though	-11.8565
▁laugh	-11.8566
上総国	-11.8567
古墳群	-11.8569
間もなく	-11.8569
大量に	-11.8571
▁zone	-11.8573
が発生し	-11.8579
厳しく	-11.8584
に移る	-11.8585
構え	-11.8588
好まれ	-11.8598
と号す	-11.8598
▁confirm	-11.8607
pound	-11.8607
醸	-11.8618
peasant	-11.8618
徹	-11.862
甫	-11.862
高句麗	-11.862
註	-11.862
▁ISSHIKI	-11.8621
▁confused	-11.8621
▁nowadays	-11.8621
▁storyteller	-11.8621
を名乗った	-11.8621
▁Medical	-11.8621
▁Place	-11.8621
▁interior	-11.8621
▁obey	-11.8621
▁Tower	-11.8621
▁textile	-11.8621
秩父	-11.8621
沖縄県	-11.8621
陥落	-11.8622
▁beach	-11.8622
改札口	-11.8623
を残す	-11.8623
航空	-11.8624
daughter	-11.8624
転封	-11.8624
武家政権	-11.8625
ヶ崎	-11.8627
に渡って	-11.8627
明確に	-11.8653
▁deliver	-11.8654
を辞し	-11.8665
▁Villa	-11.8673
▁communities	-11.8677
▁hierarchy	-11.8677
峡	-11.8677
毅	-11.8677
由緒	-11.8677
を築き	-11.8678
を失い	-11.8679
(1872	-11.8679
巨勢	-11.8679
九鬼	-11.8682
理想	-11.8685
険	-11.8733
誅	-11.8733
塁	-11.8733
きわめて	-11.8733
纏	-11.8733
教科書	-11.8733
▁climate	-11.8733
▁conspiracy	-11.8733
▁drunk	-11.8733
▁Medicine	-11.8733
▁behalf	-11.8733
潤	-11.8733
障壁画	-11.8733
▁knot	-11.8733
未詳	-11.8734
交替	-11.8736
▁Isshu	-11.8736
▁native	-11.8736
▁fellow	-11.8737
▁Mikkyo	-11.8737
Confucianism	-11.874
娘婿	-11.8745
それ以外の	-11.8758
院政期	-11.8761
▁Shogoi	-11.8771
▁advocate	-11.8777
▁preserve	-11.8777
播	-11.879
内務省	-11.879
栃木県	-11.879
橿	-11.879
遡	-11.879
栖	-11.879
賦課	-11.879
é	-11.879
▁demonstrate	-11.879
▁negative	-11.879
Chrysanthemum	-11.879
▁wedding	-11.879
嶺	-11.879
▁Gosaga	-11.879
▁annex	-11.879
縣	-11.879
舞妓	-11.879
▁Tree	-11.879
大覚寺統	-11.879
▁employee	-11.879
市町村	-11.8791
▁hearing	-11.8791
▁Hosso	-11.8791
養育	-11.8792
承認	-11.8792
予備	-11.8792
▁fox	-11.8792
衰え	-11.8796
View	-11.8796
僅か	-11.8796
regular	-11.88
を深め	-11.8801
zh	-11.8822
を背景に	-11.8826
を賜った	-11.8832
顧	-11.8847
浸	-11.8847
阪急電鉄	-11.8847
蚕	-11.8847
肌	-11.8847
蝶	-11.8847
▁Izanami	-11.8847
▁Similar	-11.8847
▁ignored	-11.8847
▁rectangular	-11.8847
▁relocation	-11.8847
▁Oyamazaki	-11.8847
▁Sahyoe	-11.8847
摺	-11.8847
engraving	-11.8847
▁treaties	-11.8847
卑弥呼	-11.8847
〉	-11.8847
文武天皇	-11.8847
▁cited	-11.8848
東海道本線	-11.8848
▁よって	-11.8848
▁vary	-11.8848
激怒し	-11.8848
拾遺	-11.8848
▁Heizei	-11.8849
▁else	-11.8849
負傷	-11.8849
▁mediation	-11.8849
▁Honzon	-11.885
▁Play	-11.8851
ローマ	-11.8859
に戻った	-11.8863
影響を与え	-11.8885
burg	-11.889
政友会	-11.8904
殉	-11.8905
眠	-11.8905
牙	-11.8905
▁sanctuary	-11.8905
▁folklore	-11.8905
▁Pagoda	-11.8905
▁furthermore	-11.8905
▁resort	-11.8905
▁Kinema	-11.8905
応神天皇	-11.8905
障害	-11.8905
配慮	-11.8905
▁charm	-11.8906
訪れる	-11.8906
Uesugi	-11.8915
Office	-11.8915
Tango	-11.8915
とほぼ同	-11.8928
KUNI	-11.8929
▁eleven	-11.8956
正四位	-11.8958
某	-11.8962
建武の新政	-11.8962
璽	-11.8962
茎	-11.8962
潰	-11.8962
左近衛大将	-11.8962
▁corridor	-11.8962
▁UTSUNOMIYA	-11.8962
▁abdication	-11.8962
[...]
